{
  "version": "1.0",
  "truncation": null,
  "padding": null,
  "added_tokens": [
    {
      "id": 0,
      "content": "<pad>",
      "single_word": false,
      "lstrip": false,
      "rstrip": false,
      "normalized": false,
      "special": true
    },
    {
      "id": 1,
      "content": "</s>",
      "single_word": false,
      "lstrip": false,
      "rstrip": false,
      "normalized": false,
      "special": true
    },
    {
      "id": 3,
      "content": "<unk>",
      "single_word": false,
      "lstrip": false,
      "rstrip": false,
      "normalized": false,
      "special": true
    },
    {
      "id": 50244,
      "content": "<extra_id_99>",
      "single_word": false,
      "lstrip": false,
      "rstrip": false,
      "normalized": false,
      "special": true
    },
    {
      "id": 50245,
      "content": "<extra_id_98>",
      "single_word": false,
      "lstrip": false,
      "rstrip": false,
      "normalized": false,
      "special": true
    },
    {
      "id": 50246,
      "content": "<extra_id_97>",
      "single_word": false,
      "lstrip": false,
      "rstrip": false,
      "normalized": false,
      "special": true
    },
    {
      "id": 50247,
      "content": "<extra_id_96>",
      "single_word": false,
      "lstrip": false,
      "rstrip": false,
      "normalized": false,
      "special": true
    },
    {
      "id": 50248,
      "content": "<extra_id_95>",
      "single_word": false,
      "lstrip": false,
      "rstrip": false,
      "normalized": false,
      "special": true
    },
    {
      "id": 50249,
      "content": "<extra_id_94>",
      "single_word": false,
      "lstrip": false,
      "rstrip": false,
      "normalized": false,
      "special": true
    },
    {
      "id": 50250,
      "content": "<extra_id_93>",
      "single_word": false,
      "lstrip": false,
      "rstrip": false,
      "normalized": false,
      "special": true
    },
    {
      "id": 50251,
      "content": "<extra_id_92>",
      "single_word": false,
      "lstrip": false,
      "rstrip": false,
      "normalized": false,
      "special": true
    },
    {
      "id": 50252,
      "content": "<extra_id_91>",
      "single_word": false,
      "lstrip": false,
      "rstrip": false,
      "normalized": false,
      "special": true
    },
    {
      "id": 50253,
      "content": "<extra_id_90>",
      "single_word": false,
      "lstrip": false,
      "rstrip": false,
      "normalized": false,
      "special": true
    },
    {
      "id": 50254,
      "content": "<extra_id_89>",
      "single_word": false,
      "lstrip": false,
      "rstrip": false,
      "normalized": false,
      "special": true
    },
    {
      "id": 50255,
      "content": "<extra_id_88>",
      "single_word": false,
      "lstrip": false,
      "rstrip": false,
      "normalized": false,
      "special": true
    },
    {
      "id": 50256,
      "content": "<extra_id_87>",
      "single_word": false,
      "lstrip": false,
      "rstrip": false,
      "normalized": false,
      "special": true
    },
    {
      "id": 50257,
      "content": "<extra_id_86>",
      "single_word": false,
      "lstrip": false,
      "rstrip": false,
      "normalized": false,
      "special": true
    },
    {
      "id": 50258,
      "content": "<extra_id_85>",
      "single_word": false,
      "lstrip": false,
      "rstrip": false,
      "normalized": false,
      "special": true
    },
    {
      "id": 50259,
      "content": "<extra_id_84>",
      "single_word": false,
      "lstrip": false,
      "rstrip": false,
      "normalized": false,
      "special": true
    },
    {
      "id": 50260,
      "content": "<extra_id_83>",
      "single_word": false,
      "lstrip": false,
      "rstrip": false,
      "normalized": false,
      "special": true
    },
    {
      "id": 50261,
      "content": "<extra_id_82>",
      "single_word": false,
      "lstrip": false,
      "rstrip": false,
      "normalized": false,
      "special": true
    },
    {
      "id": 50262,
      "content": "<extra_id_81>",
      "single_word": false,
      "lstrip": false,
      "rstrip": false,
      "normalized": false,
      "special": true
    },
    {
      "id": 50263,
      "content": "<extra_id_80>",
      "single_word": false,
      "lstrip": false,
      "rstrip": false,
      "normalized": false,
      "special": true
    },
    {
      "id": 50264,
      "content": "<extra_id_79>",
      "single_word": false,
      "lstrip": false,
      "rstrip": false,
      "normalized": false,
      "special": true
    },
    {
      "id": 50265,
      "content": "<extra_id_78>",
      "single_word": false,
      "lstrip": false,
      "rstrip": false,
      "normalized": false,
      "special": true
    },
    {
      "id": 50266,
      "content": "<extra_id_77>",
      "single_word": false,
      "lstrip": false,
      "rstrip": false,
      "normalized": false,
      "special": true
    },
    {
      "id": 50267,
      "content": "<extra_id_76>",
      "single_word": false,
      "lstrip": false,
      "rstrip": false,
      "normalized": false,
      "special": true
    },
    {
      "id": 50268,
      "content": "<extra_id_75>",
      "single_word": false,
      "lstrip": false,
      "rstrip": false,
      "normalized": false,
      "special": true
    },
    {
      "id": 50269,
      "content": "<extra_id_74>",
      "single_word": false,
      "lstrip": false,
      "rstrip": false,
      "normalized": false,
      "special": true
    },
    {
      "id": 50270,
      "content": "<extra_id_73>",
      "single_word": false,
      "lstrip": false,
      "rstrip": false,
      "normalized": false,
      "special": true
    },
    {
      "id": 50271,
      "content": "<extra_id_72>",
      "single_word": false,
      "lstrip": false,
      "rstrip": false,
      "normalized": false,
      "special": true
    },
    {
      "id": 50272,
      "content": "<extra_id_71>",
      "single_word": false,
      "lstrip": false,
      "rstrip": false,
      "normalized": false,
      "special": true
    },
    {
      "id": 50273,
      "content": "<extra_id_70>",
      "single_word": false,
      "lstrip": false,
      "rstrip": false,
      "normalized": false,
      "special": true
    },
    {
      "id": 50274,
      "content": "<extra_id_69>",
      "single_word": false,
      "lstrip": false,
      "rstrip": false,
      "normalized": false,
      "special": true
    },
    {
      "id": 50275,
      "content": "<extra_id_68>",
      "single_word": false,
      "lstrip": false,
      "rstrip": false,
      "normalized": false,
      "special": true
    },
    {
      "id": 50276,
      "content": "<extra_id_67>",
      "single_word": false,
      "lstrip": false,
      "rstrip": false,
      "normalized": false,
      "special": true
    },
    {
      "id": 50277,
      "content": "<extra_id_66>",
      "single_word": false,
      "lstrip": false,
      "rstrip": false,
      "normalized": false,
      "special": true
    },
    {
      "id": 50278,
      "content": "<extra_id_65>",
      "single_word": false,
      "lstrip": false,
      "rstrip": false,
      "normalized": false,
      "special": true
    },
    {
      "id": 50279,
      "content": "<extra_id_64>",
      "single_word": false,
      "lstrip": false,
      "rstrip": false,
      "normalized": false,
      "special": true
    },
    {
      "id": 50280,
      "content": "<extra_id_63>",
      "single_word": false,
      "lstrip": false,
      "rstrip": false,
      "normalized": false,
      "special": true
    },
    {
      "id": 50281,
      "content": "<extra_id_62>",
      "single_word": false,
      "lstrip": false,
      "rstrip": false,
      "normalized": false,
      "special": true
    },
    {
      "id": 50282,
      "content": "<extra_id_61>",
      "single_word": false,
      "lstrip": false,
      "rstrip": false,
      "normalized": false,
      "special": true
    },
    {
      "id": 50283,
      "content": "<extra_id_60>",
      "single_word": false,
      "lstrip": false,
      "rstrip": false,
      "normalized": false,
      "special": true
    },
    {
      "id": 50284,
      "content": "<extra_id_59>",
      "single_word": false,
      "lstrip": false,
      "rstrip": false,
      "normalized": false,
      "special": true
    },
    {
      "id": 50285,
      "content": "<extra_id_58>",
      "single_word": false,
      "lstrip": false,
      "rstrip": false,
      "normalized": false,
      "special": true
    },
    {
      "id": 50286,
      "content": "<extra_id_57>",
      "single_word": false,
      "lstrip": false,
      "rstrip": false,
      "normalized": false,
      "special": true
    },
    {
      "id": 50287,
      "content": "<extra_id_56>",
      "single_word": false,
      "lstrip": false,
      "rstrip": false,
      "normalized": false,
      "special": true
    },
    {
      "id": 50288,
      "content": "<extra_id_55>",
      "single_word": false,
      "lstrip": false,
      "rstrip": false,
      "normalized": false,
      "special": true
    },
    {
      "id": 50289,
      "content": "<extra_id_54>",
      "single_word": false,
      "lstrip": false,
      "rstrip": false,
      "normalized": false,
      "special": true
    },
    {
      "id": 50290,
      "content": "<extra_id_53>",
      "single_word": false,
      "lstrip": false,
      "rstrip": false,
      "normalized": false,
      "special": true
    },
    {
      "id": 50291,
      "content": "<extra_id_52>",
      "single_word": false,
      "lstrip": false,
      "rstrip": false,
      "normalized": false,
      "special": true
    },
    {
      "id": 50292,
      "content": "<extra_id_51>",
      "single_word": false,
      "lstrip": false,
      "rstrip": false,
      "normalized": false,
      "special": true
    },
    {
      "id": 50293,
      "content": "<extra_id_50>",
      "single_word": false,
      "lstrip": false,
      "rstrip": false,
      "normalized": false,
      "special": true
    },
    {
      "id": 50294,
      "content": "<extra_id_49>",
      "single_word": false,
      "lstrip": false,
      "rstrip": false,
      "normalized": false,
      "special": true
    },
    {
      "id": 50295,
      "content": "<extra_id_48>",
      "single_word": false,
      "lstrip": false,
      "rstrip": false,
      "normalized": false,
      "special": true
    },
    {
      "id": 50296,
      "content": "<extra_id_47>",
      "single_word": false,
      "lstrip": false,
      "rstrip": false,
      "normalized": false,
      "special": true
    },
    {
      "id": 50297,
      "content": "<extra_id_46>",
      "single_word": false,
      "lstrip": false,
      "rstrip": false,
      "normalized": false,
      "special": true
    },
    {
      "id": 50298,
      "content": "<extra_id_45>",
      "single_word": false,
      "lstrip": false,
      "rstrip": false,
      "normalized": false,
      "special": true
    },
    {
      "id": 50299,
      "content": "<extra_id_44>",
      "single_word": false,
      "lstrip": false,
      "rstrip": false,
      "normalized": false,
      "special": true
    },
    {
      "id": 50300,
      "content": "<extra_id_43>",
      "single_word": false,
      "lstrip": false,
      "rstrip": false,
      "normalized": false,
      "special": true
    },
    {
      "id": 50301,
      "content": "<extra_id_42>",
      "single_word": false,
      "lstrip": false,
      "rstrip": false,
      "normalized": false,
      "special": true
    },
    {
      "id": 50302,
      "content": "<extra_id_41>",
      "single_word": false,
      "lstrip": false,
      "rstrip": false,
      "normalized": false,
      "special": true
    },
    {
      "id": 50303,
      "content": "<extra_id_40>",
      "single_word": false,
      "lstrip": false,
      "rstrip": false,
      "normalized": false,
      "special": true
    },
    {
      "id": 50304,
      "content": "<extra_id_39>",
      "single_word": false,
      "lstrip": false,
      "rstrip": false,
      "normalized": false,
      "special": true
    },
    {
      "id": 50305,
      "content": "<extra_id_38>",
      "single_word": false,
      "lstrip": false,
      "rstrip": false,
      "normalized": false,
      "special": true
    },
    {
      "id": 50306,
      "content": "<extra_id_37>",
      "single_word": false,
      "lstrip": false,
      "rstrip": false,
      "normalized": false,
      "special": true
    },
    {
      "id": 50307,
      "content": "<extra_id_36>",
      "single_word": false,
      "lstrip": false,
      "rstrip": false,
      "normalized": false,
      "special": true
    },
    {
      "id": 50308,
      "content": "<extra_id_35>",
      "single_word": false,
      "lstrip": false,
      "rstrip": false,
      "normalized": false,
      "special": true
    },
    {
      "id": 50309,
      "content": "<extra_id_34>",
      "single_word": false,
      "lstrip": false,
      "rstrip": false,
      "normalized": false,
      "special": true
    },
    {
      "id": 50310,
      "content": "<extra_id_33>",
      "single_word": false,
      "lstrip": false,
      "rstrip": false,
      "normalized": false,
      "special": true
    },
    {
      "id": 50311,
      "content": "<extra_id_32>",
      "single_word": false,
      "lstrip": false,
      "rstrip": false,
      "normalized": false,
      "special": true
    },
    {
      "id": 50312,
      "content": "<extra_id_31>",
      "single_word": false,
      "lstrip": false,
      "rstrip": false,
      "normalized": false,
      "special": true
    },
    {
      "id": 50313,
      "content": "<extra_id_30>",
      "single_word": false,
      "lstrip": false,
      "rstrip": false,
      "normalized": false,
      "special": true
    },
    {
      "id": 50314,
      "content": "<extra_id_29>",
      "single_word": false,
      "lstrip": false,
      "rstrip": false,
      "normalized": false,
      "special": true
    },
    {
      "id": 50315,
      "content": "<extra_id_28>",
      "single_word": false,
      "lstrip": false,
      "rstrip": false,
      "normalized": false,
      "special": true
    },
    {
      "id": 50316,
      "content": "<extra_id_27>",
      "single_word": false,
      "lstrip": false,
      "rstrip": false,
      "normalized": false,
      "special": true
    },
    {
      "id": 50317,
      "content": "<extra_id_26>",
      "single_word": false,
      "lstrip": false,
      "rstrip": false,
      "normalized": false,
      "special": true
    },
    {
      "id": 50318,
      "content": "<extra_id_25>",
      "single_word": false,
      "lstrip": false,
      "rstrip": false,
      "normalized": false,
      "special": true
    },
    {
      "id": 50319,
      "content": "<extra_id_24>",
      "single_word": false,
      "lstrip": false,
      "rstrip": false,
      "normalized": false,
      "special": true
    },
    {
      "id": 50320,
      "content": "<extra_id_23>",
      "single_word": false,
      "lstrip": false,
      "rstrip": false,
      "normalized": false,
      "special": true
    },
    {
      "id": 50321,
      "content": "<extra_id_22>",
      "single_word": false,
      "lstrip": false,
      "rstrip": false,
      "normalized": false,
      "special": true
    },
    {
      "id": 50322,
      "content": "<extra_id_21>",
      "single_word": false,
      "lstrip": false,
      "rstrip": false,
      "normalized": false,
      "special": true
    },
    {
      "id": 50323,
      "content": "<extra_id_20>",
      "single_word": false,
      "lstrip": false,
      "rstrip": false,
      "normalized": false,
      "special": true
    },
    {
      "id": 50324,
      "content": "<extra_id_19>",
      "single_word": false,
      "lstrip": false,
      "rstrip": false,
      "normalized": false,
      "special": true
    },
    {
      "id": 50325,
      "content": "<extra_id_18>",
      "single_word": false,
      "lstrip": false,
      "rstrip": false,
      "normalized": false,
      "special": true
    },
    {
      "id": 50326,
      "content": "<extra_id_17>",
      "single_word": false,
      "lstrip": false,
      "rstrip": false,
      "normalized": false,
      "special": true
    },
    {
      "id": 50327,
      "content": "<extra_id_16>",
      "single_word": false,
      "lstrip": false,
      "rstrip": false,
      "normalized": false,
      "special": true
    },
    {
      "id": 50328,
      "content": "<extra_id_15>",
      "single_word": false,
      "lstrip": false,
      "rstrip": false,
      "normalized": false,
      "special": true
    },
    {
      "id": 50329,
      "content": "<extra_id_14>",
      "single_word": false,
      "lstrip": false,
      "rstrip": false,
      "normalized": false,
      "special": true
    },
    {
      "id": 50330,
      "content": "<extra_id_13>",
      "single_word": false,
      "lstrip": false,
      "rstrip": false,
      "normalized": false,
      "special": true
    },
    {
      "id": 50331,
      "content": "<extra_id_12>",
      "single_word": false,
      "lstrip": false,
      "rstrip": false,
      "normalized": false,
      "special": true
    },
    {
      "id": 50332,
      "content": "<extra_id_11>",
      "single_word": false,
      "lstrip": false,
      "rstrip": false,
      "normalized": false,
      "special": true
    },
    {
      "id": 50333,
      "content": "<extra_id_10>",
      "single_word": false,
      "lstrip": false,
      "rstrip": false,
      "normalized": false,
      "special": true
    },
    {
      "id": 50334,
      "content": "<extra_id_9>",
      "single_word": false,
      "lstrip": false,
      "rstrip": false,
      "normalized": false,
      "special": true
    },
    {
      "id": 50335,
      "content": "<extra_id_8>",
      "single_word": false,
      "lstrip": false,
      "rstrip": false,
      "normalized": false,
      "special": true
    },
    {
      "id": 50336,
      "content": "<extra_id_7>",
      "single_word": false,
      "lstrip": false,
      "rstrip": false,
      "normalized": false,
      "special": true
    },
    {
      "id": 50337,
      "content": "<extra_id_6>",
      "single_word": false,
      "lstrip": false,
      "rstrip": false,
      "normalized": false,
      "special": true
    },
    {
      "id": 50338,
      "content": "<extra_id_5>",
      "single_word": false,
      "lstrip": false,
      "rstrip": false,
      "normalized": false,
      "special": true
    },
    {
      "id": 50339,
      "content": "<extra_id_4>",
      "single_word": false,
      "lstrip": false,
      "rstrip": false,
      "normalized": false,
      "special": true
    },
    {
      "id": 50340,
      "content": "<extra_id_3>",
      "single_word": false,
      "lstrip": false,
      "rstrip": false,
      "normalized": false,
      "special": true
    },
    {
      "id": 50341,
      "content": "<extra_id_2>",
      "single_word": false,
      "lstrip": false,
      "rstrip": false,
      "normalized": false,
      "special": true
    },
    {
      "id": 50342,
      "content": "<extra_id_1>",
      "single_word": false,
      "lstrip": false,
      "rstrip": false,
      "normalized": false,
      "special": true
    },
    {
      "id": 50343,
      "content": "<extra_id_0>",
      "single_word": false,
      "lstrip": false,
      "rstrip": false,
      "normalized": false,
      "special": true
    }
  ],
  "normalizer": {
    "type": "Sequence",
    "normalizers": [
      {
        "type": "Replace",
        "pattern": {
          "Regex": " {2,}"
        },
        "content": " "
      }
    ]
  },
  "pre_tokenizer": {
    "type": "Metaspace",
    "replacement": "▁",
    "add_prefix_space": true
  },
  "post_processor": {
    "type": "TemplateProcessing",
    "single": [
      {
        "Sequence": {
          "id": "A",
          "type_id": 0
        }
      },
      {
        "SpecialToken": {
          "id": "</s>",
          "type_id": 0
        }
      }
    ],
    "pair": [
      {
        "Sequence": {
          "id": "A",
          "type_id": 0
        }
      },
      {
        "SpecialToken": {
          "id": "</s>",
          "type_id": 0
        }
      },
      {
        "Sequence": {
          "id": "B",
          "type_id": 0
        }
      },
      {
        "SpecialToken": {
          "id": "</s>",
          "type_id": 0
        }
      }
    ],
    "special_tokens": {
      "</s>": {
        "id": "</s>",
        "ids": [
          1
        ],
        "tokens": [
          "</s>"
        ]
      }
    }
  },
  "decoder": {
    "type": "Metaspace",
    "replacement": "▁",
    "add_prefix_space": true
  },
  "model": {
    "type": "Unigram",
    "unk_id": 3,
    "vocab": [
      [
        "<pad>",
        0.0
      ],
      [
        "</s>",
        0.0
      ],
      [
        "<s>",
        0.0
      ],
      [
        "<unk>",
        0.0
      ],
      [
        "[eod]",
        0.0
      ],
      [
        "[web]",
        0.0
      ],
      [
        "[wiki]",
        0.0
      ],
      [
        "[translate]",
        0.0
      ],
      [
        "[convo]",
        0.0
      ],
      [
        "[fc]",
        0.0
      ],
      [
        "[ffc]",
        0.0
      ],
      [
        "[code]",
        0.0
      ],
      [
        "[book]",
        0.0
      ],
      [
        "[c4]",
        0.0
      ],
      [
        "[news]",
        0.0
      ],
      [
        "[forum]",
        0.0
      ],
      [
        "[eot]",
        0.0
      ],
      [
        "<0x00>",
        0.0
      ],
      [
        "<0x01>",
        0.0
      ],
      [
        "<0x02>",
        0.0
      ],
      [
        "<0x03>",
        0.0
      ],
      [
        "<0x04>",
        0.0
      ],
      [
        "<0x05>",
        0.0
      ],
      [
        "<0x06>",
        0.0
      ],
      [
        "<0x07>",
        0.0
      ],
      [
        "<0x08>",
        0.0
      ],
      [
        "<0x09>",
        0.0
      ],
      [
        "<0x0A>",
        0.0
      ],
      [
        "<0x0B>",
        0.0
      ],
      [
        "<0x0C>",
        0.0
      ],
      [
        "<0x0D>",
        0.0
      ],
      [
        "<0x0E>",
        0.0
      ],
      [
        "<0x0F>",
        0.0
      ],
      [
        "<0x10>",
        0.0
      ],
      [
        "<0x11>",
        0.0
      ],
      [
        "<0x12>",
        0.0
      ],
      [
        "<0x13>",
        0.0
      ],
      [
        "<0x14>",
        0.0
      ],
      [
        "<0x15>",
        0.0
      ],
      [
        "<0x16>",
        0.0
      ],
      [
        "<0x17>",
        0.0
      ],
      [
        "<0x18>",
        0.0
      ],
      [
        "<0x19>",
        0.0
      ],
      [
        "<0x1A>",
        0.0
      ],
      [
        "<0x1B>",
        0.0
      ],
      [
        "<0x1C>",
        0.0
      ],
      [
        "<0x1D>",
        0.0
      ],
      [
        "<0x1E>",
        0.0
      ],
      [
        "<0x1F>",
        0.0
      ],
      [
        "<0x20>",
        0.0
      ],
      [
        "<0x21>",
        0.0
      ],
      [
        "<0x22>",
        0.0
      ],
      [
        "<0x23>",
        0.0
      ],
      [
        "<0x24>",
        0.0
      ],
      [
        "<0x25>",
        0.0
      ],
      [
        "<0x26>",
        0.0
      ],
      [
        "<0x27>",
        0.0
      ],
      [
        "<0x28>",
        0.0
      ],
      [
        "<0x29>",
        0.0
      ],
      [
        "<0x2A>",
        0.0
      ],
      [
        "<0x2B>",
        0.0
      ],
      [
        "<0x2C>",
        0.0
      ],
      [
        "<0x2D>",
        0.0
      ],
      [
        "<0x2E>",
        0.0
      ],
      [
        "<0x2F>",
        0.0
      ],
      [
        "<0x30>",
        0.0
      ],
      [
        "<0x31>",
        0.0
      ],
      [
        "<0x32>",
        0.0
      ],
      [
        "<0x33>",
        0.0
      ],
      [
        "<0x34>",
        0.0
      ],
      [
        "<0x35>",
        0.0
      ],
      [
        "<0x36>",
        0.0
      ],
      [
        "<0x37>",
        0.0
      ],
      [
        "<0x38>",
        0.0
      ],
      [
        "<0x39>",
        0.0
      ],
      [
        "<0x3A>",
        0.0
      ],
      [
        "<0x3B>",
        0.0
      ],
      [
        "<0x3C>",
        0.0
      ],
      [
        "<0x3D>",
        0.0
      ],
      [
        "<0x3E>",
        0.0
      ],
      [
        "<0x3F>",
        0.0
      ],
      [
        "<0x40>",
        0.0
      ],
      [
        "<0x41>",
        0.0
      ],
      [
        "<0x42>",
        0.0
      ],
      [
        "<0x43>",
        0.0
      ],
      [
        "<0x44>",
        0.0
      ],
      [
        "<0x45>",
        0.0
      ],
      [
        "<0x46>",
        0.0
      ],
      [
        "<0x47>",
        0.0
      ],
      [
        "<0x48>",
        0.0
      ],
      [
        "<0x49>",
        0.0
      ],
      [
        "<0x4A>",
        0.0
      ],
      [
        "<0x4B>",
        0.0
      ],
      [
        "<0x4C>",
        0.0
      ],
      [
        "<0x4D>",
        0.0
      ],
      [
        "<0x4E>",
        0.0
      ],
      [
        "<0x4F>",
        0.0
      ],
      [
        "<0x50>",
        0.0
      ],
      [
        "<0x51>",
        0.0
      ],
      [
        "<0x52>",
        0.0
      ],
      [
        "<0x53>",
        0.0
      ],
      [
        "<0x54>",
        0.0
      ],
      [
        "<0x55>",
        0.0
      ],
      [
        "<0x56>",
        0.0
      ],
      [
        "<0x57>",
        0.0
      ],
      [
        "<0x58>",
        0.0
      ],
      [
        "<0x59>",
        0.0
      ],
      [
        "<0x5A>",
        0.0
      ],
      [
        "<0x5B>",
        0.0
      ],
      [
        "<0x5C>",
        0.0
      ],
      [
        "<0x5D>",
        0.0
      ],
      [
        "<0x5E>",
        0.0
      ],
      [
        "<0x5F>",
        0.0
      ],
      [
        "<0x60>",
        0.0
      ],
      [
        "<0x61>",
        0.0
      ],
      [
        "<0x62>",
        0.0
      ],
      [
        "<0x63>",
        0.0
      ],
      [
        "<0x64>",
        0.0
      ],
      [
        "<0x65>",
        0.0
      ],
      [
        "<0x66>",
        0.0
      ],
      [
        "<0x67>",
        0.0
      ],
      [
        "<0x68>",
        0.0
      ],
      [
        "<0x69>",
        0.0
      ],
      [
        "<0x6A>",
        0.0
      ],
      [
        "<0x6B>",
        0.0
      ],
      [
        "<0x6C>",
        0.0
      ],
      [
        "<0x6D>",
        0.0
      ],
      [
        "<0x6E>",
        0.0
      ],
      [
        "<0x6F>",
        0.0
      ],
      [
        "<0x70>",
        0.0
      ],
      [
        "<0x71>",
        0.0
      ],
      [
        "<0x72>",
        0.0
      ],
      [
        "<0x73>",
        0.0
      ],
      [
        "<0x74>",
        0.0
      ],
      [
        "<0x75>",
        0.0
      ],
      [
        "<0x76>",
        0.0
      ],
      [
        "<0x77>",
        0.0
      ],
      [
        "<0x78>",
        0.0
      ],
      [
        "<0x79>",
        0.0
      ],
      [
        "<0x7A>",
        0.0
      ],
      [
        "<0x7B>",
        0.0
      ],
      [
        "<0x7C>",
        0.0
      ],
      [
        "<0x7D>",
        0.0
      ],
      [
        "<0x7E>",
        0.0
      ],
      [
        "<0x7F>",
        0.0
      ],
      [
        "<0x80>",
        0.0
      ],
      [
        "<0x81>",
        0.0
      ],
      [
        "<0x82>",
        0.0
      ],
      [
        "<0x83>",
        0.0
      ],
      [
        "<0x84>",
        0.0
      ],
      [
        "<0x85>",
        0.0
      ],
      [
        "<0x86>",
        0.0
      ],
      [
        "<0x87>",
        0.0
      ],
      [
        "<0x88>",
        0.0
      ],
      [
        "<0x89>",
        0.0
      ],
      [
        "<0x8A>",
        0.0
      ],
      [
        "<0x8B>",
        0.0
      ],
      [
        "<0x8C>",
        0.0
      ],
      [
        "<0x8D>",
        0.0
      ],
      [
        "<0x8E>",
        0.0
      ],
      [
        "<0x8F>",
        0.0
      ],
      [
        "<0x90>",
        0.0
      ],
      [
        "<0x91>",
        0.0
      ],
      [
        "<0x92>",
        0.0
      ],
      [
        "<0x93>",
        0.0
      ],
      [
        "<0x94>",
        0.0
      ],
      [
        "<0x95>",
        0.0
      ],
      [
        "<0x96>",
        0.0
      ],
      [
        "<0x97>",
        0.0
      ],
      [
        "<0x98>",
        0.0
      ],
      [
        "<0x99>",
        0.0
      ],
      [
        "<0x9A>",
        0.0
      ],
      [
        "<0x9B>",
        0.0
      ],
      [
        "<0x9C>",
        0.0
      ],
      [
        "<0x9D>",
        0.0
      ],
      [
        "<0x9E>",
        0.0
      ],
      [
        "<0x9F>",
        0.0
      ],
      [
        "<0xA0>",
        0.0
      ],
      [
        "<0xA1>",
        0.0
      ],
      [
        "<0xA2>",
        0.0
      ],
      [
        "<0xA3>",
        0.0
      ],
      [
        "<0xA4>",
        0.0
      ],
      [
        "<0xA5>",
        0.0
      ],
      [
        "<0xA6>",
        0.0
      ],
      [
        "<0xA7>",
        0.0
      ],
      [
        "<0xA8>",
        0.0
      ],
      [
        "<0xA9>",
        0.0
      ],
      [
        "<0xAA>",
        0.0
      ],
      [
        "<0xAB>",
        0.0
      ],
      [
        "<0xAC>",
        0.0
      ],
      [
        "<0xAD>",
        0.0
      ],
      [
        "<0xAE>",
        0.0
      ],
      [
        "<0xAF>",
        0.0
      ],
      [
        "<0xB0>",
        0.0
      ],
      [
        "<0xB1>",
        0.0
      ],
      [
        "<0xB2>",
        0.0
      ],
      [
        "<0xB3>",
        0.0
      ],
      [
        "<0xB4>",
        0.0
      ],
      [
        "<0xB5>",
        0.0
      ],
      [
        "<0xB6>",
        0.0
      ],
      [
        "<0xB7>",
        0.0
      ],
      [
        "<0xB8>",
        0.0
      ],
      [
        "<0xB9>",
        0.0
      ],
      [
        "<0xBA>",
        0.0
      ],
      [
        "<0xBB>",
        0.0
      ],
      [
        "<0xBC>",
        0.0
      ],
      [
        "<0xBD>",
        0.0
      ],
      [
        "<0xBE>",
        0.0
      ],
      [
        "<0xBF>",
        0.0
      ],
      [
        "<0xC0>",
        0.0
      ],
      [
        "<0xC1>",
        0.0
      ],
      [
        "<0xC2>",
        0.0
      ],
      [
        "<0xC3>",
        0.0
      ],
      [
        "<0xC4>",
        0.0
      ],
      [
        "<0xC5>",
        0.0
      ],
      [
        "<0xC6>",
        0.0
      ],
      [
        "<0xC7>",
        0.0
      ],
      [
        "<0xC8>",
        0.0
      ],
      [
        "<0xC9>",
        0.0
      ],
      [
        "<0xCA>",
        0.0
      ],
      [
        "<0xCB>",
        0.0
      ],
      [
        "<0xCC>",
        0.0
      ],
      [
        "<0xCD>",
        0.0
      ],
      [
        "<0xCE>",
        0.0
      ],
      [
        "<0xCF>",
        0.0
      ],
      [
        "<0xD0>",
        0.0
      ],
      [
        "<0xD1>",
        0.0
      ],
      [
        "<0xD2>",
        0.0
      ],
      [
        "<0xD3>",
        0.0
      ],
      [
        "<0xD4>",
        0.0
      ],
      [
        "<0xD5>",
        0.0
      ],
      [
        "<0xD6>",
        0.0
      ],
      [
        "<0xD7>",
        0.0
      ],
      [
        "<0xD8>",
        0.0
      ],
      [
        "<0xD9>",
        0.0
      ],
      [
        "<0xDA>",
        0.0
      ],
      [
        "<0xDB>",
        0.0
      ],
      [
        "<0xDC>",
        0.0
      ],
      [
        "<0xDD>",
        0.0
      ],
      [
        "<0xDE>",
        0.0
      ],
      [
        "<0xDF>",
        0.0
      ],
      [
        "<0xE0>",
        0.0
      ],
      [
        "<0xE1>",
        0.0
      ],
      [
        "<0xE2>",
        0.0
      ],
      [
        "<0xE3>",
        0.0
      ],
      [
        "<0xE4>",
        0.0
      ],
      [
        "<0xE5>",
        0.0
      ],
      [
        "<0xE6>",
        0.0
      ],
      [
        "<0xE7>",
        0.0
      ],
      [
        "<0xE8>",
        0.0
      ],
      [
        "<0xE9>",
        0.0
      ],
      [
        "<0xEA>",
        0.0
      ],
      [
        "<0xEB>",
        0.0
      ],
      [
        "<0xEC>",
        0.0
      ],
      [
        "<0xED>",
        0.0
      ],
      [
        "<0xEE>",
        0.0
      ],
      [
        "<0xEF>",
        0.0
      ],
      [
        "<0xF0>",
        0.0
      ],
      [
        "<0xF1>",
        0.0
      ],
      [
        "<0xF2>",
        0.0
      ],
      [
        "<0xF3>",
        0.0
      ],
      [
        "<0xF4>",
        0.0
      ],
      [
        "<0xF5>",
        0.0
      ],
      [
        "<0xF6>",
        0.0
      ],
      [
        "<0xF7>",
        0.0
      ],
      [
        "<0xF8>",
        0.0
      ],
      [
        "<0xF9>",
        0.0
      ],
      [
        "<0xFA>",
        0.0
      ],
      [
        "<0xFB>",
        0.0
      ],
      [
        "<0xFC>",
        0.0
      ],
      [
        "<0xFD>",
        0.0
      ],
      [
        "<0xFE>",
        0.0
      ],
      [
        "<0xFF>",
        0.0
      ],
      [
        "▁",
        -2.698024034500122
      ],
      [
        ".",
        -3.140636444091797
      ],
      [
        ",",
        -3.414116382598877
      ],
      [
        "▁the",
        -3.643615961074829
      ],
      [
        "1",
        -3.7911574840545654
      ],
      [
        "0",
        -4.0786519050598145
      ],
      [
        "2",
        -4.22980260848999
      ],
      [
        "▁of",
        -4.239855766296387
      ],
      [
        "▁to",
        -4.2689738273620605
      ],
      [
        "▁and",
        -4.317158222198486
      ],
      [
        "▁a",
        -4.41641902923584
      ],
      [
        "'",
        -4.611481189727783
      ],
      [
        "3",
        -4.671335697174072
      ],
      [
        "▁in",
        -4.697808742523193
      ],
      [
        "s",
        -4.752309322357178
      ],
      [
        "-",
        -4.759533405303955
      ],
      [
        "4",
        -4.815275192260742
      ],
      [
        "5",
        -4.83640718460083
      ],
      [
        "▁I",
        -4.8400397300720215
      ],
      [
        "9",
        -4.868880748748779
      ],
      [
        "6",
        -4.961972236633301
      ],
      [
        "8",
        -4.993977069854736
      ],
      [
        "7",
        -5.007702827453613
      ],
      [
        "▁is",
        -5.042075157165527
      ],
      [
        "▁that",
        -5.093306064605713
      ],
      [
        "▁it",
        -5.25020694732666
      ],
      [
        "▁for",
        -5.2980427742004395
      ],
      [
        "▁you",
        -5.421942710876465
      ],
      [
        "t",
        -5.562077522277832
      ],
      [
        "▁on",
        -5.588498592376709
      ],
      [
        "▁with",
        -5.608133316040039
      ],
      [
        "▁(",
        -5.625457763671875
      ],
      [
        ":",
        -5.626156330108643
      ],
      [
        "▁was",
        -5.626835823059082
      ],
      [
        "▁be",
        -5.704977035522461
      ],
      [
        ")",
        -5.760834693908691
      ],
      [
        "▁as",
        -5.797095775604248
      ],
      [
        "▁The",
        -5.843313217163086
      ],
      [
        "?",
        -5.8524556159973145
      ],
      [
        "▁\"",
        -5.888681411743164
      ],
      [
        "▁are",
        -5.910728931427002
      ],
      [
        "▁have",
        -5.921281814575195
      ],
      [
        "▁this",
        -5.931042194366455
      ],
      [
        "▁not",
        -5.955577850341797
      ],
      [
        "/",
        -5.9569091796875
      ],
      [
        "▁or",
        -6.062403202056885
      ],
      [
        "▁at",
        -6.083878517150879
      ],
      [
        "▁but",
        -6.124791622161865
      ],
      [
        "▁by",
        -6.1284942626953125
      ],
      [
        "▁from",
        -6.169403076171875
      ],
      [
        "▁he",
        -6.171823978424072
      ],
      [
        ";",
        -6.180359363555908
      ],
      [
        "’",
        -6.206516742706299
      ],
      [
        "_",
        -6.235681056976318
      ],
      [
        "\"",
        -6.249874114990234
      ],
      [
        "▁they",
        -6.268922328948975
      ],
      [
        "▁an",
        -6.328697681427002
      ],
      [
        "▁his",
        -6.356032848358154
      ],
      [
        "▁can",
        -6.392157077789307
      ],
      [
        "▁my",
        -6.4253153800964355
      ],
      [
        "!",
        -6.4492387771606445
      ],
      [
        "▁-",
        -6.505438327789307
      ],
      [
        "▁all",
        -6.524065971374512
      ],
      [
        "▁if",
        -6.539584636688232
      ],
      [
        "m",
        -6.552034378051758
      ],
      [
        "▁one",
        -6.561257839202881
      ],
      [
        "▁your",
        -6.574651718139648
      ],
      [
        "▁so",
        -6.576108455657959
      ],
      [
        "▁had",
        -6.599708080291748
      ],
      [
        "▁like",
        -6.6041364669799805
      ],
      [
        "▁would",
        -6.637598037719727
      ],
      [
        "▁will",
        -6.6492486000061035
      ],
      [
        "▁has",
        -6.666264533996582
      ],
      [
        "(",
        -6.679432392120361
      ],
      [
        "▁about",
        -6.6842169761657715
      ],
      [
        "▁just",
        -6.685737609863281
      ],
      [
        "▁we",
        -6.686551570892334
      ],
      [
        "▁more",
        -6.689206600189209
      ],
      [
        "▁which",
        -6.695131301879883
      ],
      [
        "▁me",
        -6.700553894042969
      ],
      [
        "▁their",
        -6.7046074867248535
      ],
      [
        "▁do",
        -6.72688102722168
      ],
      [
        "▁out",
        -6.731420516967773
      ],
      [
        "▁It",
        -6.741597652435303
      ],
      [
        "▁up",
        -6.7746357917785645
      ],
      [
        "▁were",
        -6.778067588806152
      ],
      [
        "▁her",
        -6.842039108276367
      ],
      [
        "a",
        -6.846948146820068
      ],
      [
        "▁what",
        -6.847767353057861
      ],
      [
        "▁there",
        -6.873029708862305
      ],
      [
        "▁who",
        -6.886642932891846
      ],
      [
        "▁when",
        -6.9110517501831055
      ],
      [
        "▁been",
        -6.912571430206299
      ],
      [
        "▁them",
        -6.9174675941467285
      ],
      [
        "▁A",
        -6.936934471130371
      ],
      [
        "▁people",
        -6.960011959075928
      ],
      [
        "▁no",
        -6.960821628570557
      ],
      [
        "▁time",
        -6.963814735412598
      ],
      [
        ">",
        -6.963930130004883
      ],
      [
        "re",
        -6.964235305786133
      ],
      [
        "▁get",
        -6.969603061676025
      ],
      [
        "▁some",
        -7.023616790771484
      ],
      [
        "▁de",
        -7.039402961730957
      ],
      [
        "▁other",
        -7.0590434074401855
      ],
      [
        "▁than",
        -7.081052780151367
      ],
      [
        "▁said",
        -7.09481954574585
      ],
      [
        "d",
        -7.105940341949463
      ],
      [
        "▁him",
        -7.114292621612549
      ],
      [
        "▁only",
        -7.131730079650879
      ],
      [
        "▁▁▁▁",
        -7.132043838500977
      ],
      [
        "▁don",
        -7.143031120300293
      ],
      [
        "▁she",
        -7.149295330047607
      ],
      [
        "▁C",
        -7.169149398803711
      ],
      [
        "▁In",
        -7.184115409851074
      ],
      [
        "▁into",
        -7.192677974700928
      ],
      [
        "▁any",
        -7.203024864196777
      ],
      [
        "e",
        -7.20503568649292
      ],
      [
        "▁also",
        -7.223649501800537
      ],
      [
        "▁He",
        -7.22941780090332
      ],
      [
        "▁because",
        -7.250388622283936
      ],
      [
        "=\"",
        -7.266611576080322
      ],
      [
        "▁This",
        -7.267231941223144
      ],
      [
        "▁think",
        -7.279982566833496
      ],
      [
        "▁know",
        -7.308974266052246
      ],
      [
        "▁=",
        -7.309488296508789
      ],
      [
        "▁could",
        -7.317221641540527
      ],
      [
        "▁▁▁▁▁▁▁▁",
        -7.320034980773926
      ],
      [
        "▁how",
        -7.323514461517334
      ],
      [
        "▁then",
        -7.348728656768799
      ],
      [
        "▁You",
        -7.361281871795654
      ],
      [
        ").",
        -7.363574028015137
      ],
      [
        "▁i",
        -7.364363193511963
      ],
      [
        "▁its",
        -7.37123966217041
      ],
      [
        "▁“",
        -7.373741626739502
      ],
      [
        "▁good",
        -7.400733947753906
      ],
      [
        "▁If",
        -7.408188819885254
      ],
      [
        "▁first",
        -7.417547225952148
      ],
      [
        "▁over",
        -7.427121639251709
      ],
      [
        "▁<",
        -7.431371212005615
      ],
      [
        "▁much",
        -7.436361789703369
      ],
      [
        "▁even",
        -7.446770191192627
      ],
      [
        "ve",
        -7.449548721313477
      ],
      [
        "▁make",
        -7.454278945922852
      ],
      [
        "▁now",
        -7.455766201019287
      ],
      [
        "i",
        -7.457249641418457
      ],
      [
        "▁should",
        -7.459263324737549
      ],
      [
        "▁see",
        -7.477813243865967
      ],
      [
        "▁new",
        -7.47900390625
      ],
      [
        ".\"",
        -7.482199668884277
      ],
      [
        "▁way",
        -7.489339828491211
      ],
      [
        "▁our",
        -7.510385036468506
      ],
      [
        "▁really",
        -7.51255464553833
      ],
      [
        "...",
        -7.514228820800781
      ],
      [
        "▁two",
        -7.514524459838867
      ],
      [
        "▁being",
        -7.526951313018799
      ],
      [
        "▁after",
        -7.537573337554932
      ],
      [
        "▁But",
        -7.548096179962158
      ],
      [
        "▁very",
        -7.555501461029053
      ],
      [
        "▁*",
        -7.564826488494873
      ],
      [
        "▁most",
        -7.566647529602051
      ],
      [
        "▁these",
        -7.572032928466797
      ],
      [
        "▁may",
        -7.604327201843262
      ],
      [
        "▁{",
        -7.609642028808594
      ],
      [
        "),",
        -7.613617420196533
      ],
      [
        "▁work",
        -7.626995086669922
      ],
      [
        "▁back",
        -7.62717866897583
      ],
      [
        "▁well",
        -7.628232479095459
      ],
      [
        "▁want",
        -7.640902519226074
      ],
      [
        "▁go",
        -7.641867160797119
      ],
      [
        "▁where",
        -7.64722204208374
      ],
      [
        "▁use",
        -7.647732734680176
      ],
      [
        "▁still",
        -7.662100791931152
      ],
      [
        "▁did",
        -7.665346145629883
      ],
      [
        "▁too",
        -7.666604518890381
      ],
      [
        "▁And",
        -7.667179107666016
      ],
      [
        "▁same",
        -7.698319435119629
      ],
      [
        "▁before",
        -7.698591709136963
      ],
      [
        "▁right",
        -7.71950101852417
      ],
      [
        "▁made",
        -7.719552516937256
      ],
      [
        "ll",
        -7.719815254211426
      ],
      [
        "I",
        -7.72261381149292
      ],
      [
        "▁those",
        -7.731202125549316
      ],
      [
        "://",
        -7.734537124633789
      ],
      [
        "▁That",
        -7.737783432006836
      ],
      [
        "▁here",
        -7.749389171600342
      ],
      [
        "▁They",
        -7.750583171844482
      ],
      [
        "com",
        -7.75244665145874
      ],
      [
        "▁years",
        -7.77233362197876
      ],
      [
        "▁$",
        -7.773091793060303
      ],
      [
        "▁going",
        -7.777947425842285
      ],
      [
        "▁—",
        -7.781326293945312
      ],
      [
        "▁many",
        -7.793638706207275
      ],
      [
        "▁such",
        -7.795915603637695
      ],
      [
        "▁need",
        -7.798218727111816
      ],
      [
        "▁We",
        -7.816500663757324
      ],
      [
        "▁through",
        -7.824464321136475
      ],
      [
        "▁down",
        -7.835267066955566
      ],
      [
        "▁game",
        -7.837850093841553
      ],
      [
        "▁say",
        -7.847999095916748
      ],
      [
        "n",
        -7.851974964141846
      ],
      [
        "S",
        -7.857560157775879
      ],
      [
        "▁▁▁▁▁▁▁▁▁▁▁▁",
        -7.862905979156494
      ],
      [
        "▁off",
        -7.867732524871826
      ],
      [
        "</",
        -7.871417045593262
      ],
      [
        "▁something",
        -7.876963138580322
      ],
      [
        "%",
        -7.888774871826172
      ],
      [
        "▁take",
        -7.90443754196167
      ],
      [
        "▁never",
        -7.907566070556641
      ],
      [
        "]",
        -7.90822696685791
      ],
      [
        "▁class",
        -7.911334991455078
      ],
      [
        "▁▁▁▁▁▁▁▁▁▁▁▁▁▁▁▁",
        -7.926181793212891
      ],
      [
        "▁What",
        -7.928462982177734
      ],
      [
        "▁got",
        -7.932660102844238
      ],
      [
        "▁us",
        -7.936719417572021
      ],
      [
        "▁used",
        -7.949099063873291
      ],
      [
        "▁day",
        -7.949285507202148
      ],
      [
        ",\"",
        -7.9560041427612305
      ],
      [
        "▁la",
        -7.961236953735352
      ],
      [
        "▁while",
        -7.979379177093506
      ],
      [
        "▁does",
        -7.979404449462891
      ],
      [
        "▁man",
        -7.980200290679932
      ],
      [
        "▁life",
        -7.980843067169189
      ],
      [
        "▁between",
        -7.991939544677734
      ],
      [
        "▁long",
        -7.993456363677979
      ],
      [
        "▁So",
        -8.004862785339355
      ],
      [
        "▁year",
        -8.005613327026367
      ],
      [
        "▁There",
        -8.009791374206543
      ],
      [
        "▁better",
        -8.012804985046387
      ],
      [
        ");",
        -8.015270233154297
      ],
      [
        "▁great",
        -8.019418716430664
      ],
      [
        "▁own",
        -8.026528358459473
      ],
      [
        "▁last",
        -8.033513069152832
      ],
      [
        "\",\"",
        -8.041414260864258
      ],
      [
        "y",
        -8.053838729858398
      ],
      [
        "▁[",
        -8.055989265441895
      ],
      [
        "▁am",
        -8.058184623718262
      ],
      [
        "o",
        -8.066853523254395
      ],
      [
        "▁around",
        -8.067889213562012
      ],
      [
        "▁things",
        -8.076337814331055
      ],
      [
        "▁}",
        -8.07653522491455
      ],
      [
        "▁every",
        -8.077778816223145
      ],
      [
        "▁No",
        -8.079487800598145
      ],
      [
        "▁both",
        -8.082265853881836
      ],
      [
        "▁though",
        -8.084410667419434
      ],
      [
        "▁thing",
        -8.089865684509277
      ],
      [
        "▁under",
        -8.106861114501953
      ],
      [
        "▁part",
        -8.110228538513184
      ],
      [
        "A",
        -8.117755889892578
      ],
      [
        "▁without",
        -8.121617317199707
      ],
      [
        "▁little",
        -8.126263618469238
      ],
      [
        "▁▁▁▁▁",
        -8.138055801391602
      ],
      [
        "▁might",
        -8.139833450317383
      ],
      [
        "▁find",
        -8.1425199508667
      ],
      [
        "▁point",
        -8.152509689331055
      ],
      [
        "▁didn",
        -8.153823852539062
      ],
      [
        "▁She",
        -8.155105590820312
      ],
      [
        "▁lot",
        -8.157628059387207
      ],
      [
        "▁few",
        -8.16520881652832
      ],
      [
        "▁end",
        -8.167266845703125
      ],
      [
        "▁always",
        -8.170950889587402
      ],
      [
        "▁why",
        -8.174079895019531
      ],
      [
        "▁each",
        -8.17526626586914
      ],
      [
        "▁For",
        -8.179086685180664
      ],
      [
        "=",
        -8.181924819946289
      ],
      [
        "▁best",
        -8.181924819946289
      ],
      [
        "\">",
        -8.192233085632324
      ],
      [
        "▁As",
        -8.193124771118164
      ],
      [
        "▁since",
        -8.1934814453125
      ],
      [
        "▁sure",
        -8.196728706359863
      ],
      [
        "▁different",
        -8.197870254516602
      ],
      [
        "▁world",
        -8.205400466918945
      ],
      [
        "▁another",
        -8.211732864379883
      ],
      [
        "▁must",
        -8.213815689086914
      ],
      [
        "▁look",
        -8.218993186950684
      ],
      [
        "▁against",
        -8.221525192260742
      ],
      [
        "▁come",
        -8.243109703063965
      ],
      [
        "in",
        -8.252583503723145
      ],
      [
        "▁doesn",
        -8.253325462341309
      ],
      [
        "▁love",
        -8.255142211914062
      ],
      [
        "▁again",
        -8.261823654174805
      ],
      [
        "▁#",
        -8.262044906616211
      ],
      [
        "▁help",
        -8.269423484802246
      ],
      [
        "*",
        -8.27681827545166
      ],
      [
        "▁feel",
        -8.279156684875488
      ],
      [
        "▁My",
        -8.27981948852539
      ],
      [
        "▁public",
        -8.284706115722656
      ],
      [
        "▁place",
        -8.284879684448242
      ],
      [
        "▁name",
        -8.287322998046875
      ],
      [
        "ing",
        -8.293242454528809
      ],
      [
        "▁S",
        -8.294633865356445
      ],
      [
        "▁actually",
        -8.299765586853027
      ],
      [
        "▁found",
        -8.302899360656738
      ],
      [
        "c",
        -8.315657615661621
      ],
      [
        "▁play",
        -8.325067520141602
      ],
      [
        "x",
        -8.331414222717285
      ],
      [
        "▁give",
        -8.334991455078125
      ],
      [
        "en",
        -8.338096618652344
      ],
      [
        "▁&",
        -8.33814811706543
      ],
      [
        "▁case",
        -8.34189224243164
      ],
      [
        "▁en",
        -8.345366477966309
      ],
      [
        "▁someone",
        -8.350335121154785
      ],
      [
        "r",
        -8.35216999053955
      ],
      [
        "”",
        -8.352745056152344
      ],
      [
        "▁thought",
        -8.353105545043945
      ],
      [
        "▁New",
        -8.355132102966309
      ],
      [
        "▁put",
        -8.357372283935547
      ],
      [
        "▁set",
        -8.361750602722168
      ],
      [
        "▁high",
        -8.36275863647461
      ],
      [
        "th",
        -8.367548942565918
      ],
      [
        "C",
        -8.371111869812012
      ],
      [
        "er",
        -8.372170448303223
      ],
      [
        "▁three",
        -8.379429817199707
      ],
      [
        "▁pretty",
        -8.383264541625977
      ],
      [
        "▁When",
        -8.387214660644531
      ],
      [
        "u",
        -8.390273094177246
      ],
      [
        "p",
        -8.398764610290527
      ],
      [
        "<",
        -8.40500259399414
      ],
      [
        "▁enough",
        -8.407035827636719
      ],
      [
        "▁anything",
        -8.41550350189209
      ],
      [
        "▁old",
        -8.415523529052734
      ],
      [
        "▁during",
        -8.416909217834473
      ],
      [
        "▁ever",
        -8.418441772460938
      ],
      [
        "▁M",
        -8.423524856567383
      ],
      [
        "▁system",
        -8.433175086975098
      ],
      [
        "▁state",
        -8.43500804901123
      ],
      [
        "▁away",
        -8.437339782714844
      ],
      [
        "▁B",
        -8.437344551086426
      ],
      [
        "▁far",
        -8.439204216003418
      ],
      [
        "▁person",
        -8.446855545043945
      ],
      [
        "▁next",
        -8.44861888885498
      ],
      [
        "▁using",
        -8.453139305114746
      ],
      [
        "h",
        -8.455655097961426
      ],
      [
        "▁post",
        -8.45611572265625
      ],
      [
        "▁number",
        -8.459273338317871
      ],
      [
        "▁probably",
        -8.459637641906738
      ],
      [
        "The",
        -8.46947956085205
      ],
      [
        "+",
        -8.478446006774902
      ],
      [
        "▁less",
        -8.480941772460938
      ],
      [
        "▁already",
        -8.48232650756836
      ],
      [
        "▁left",
        -8.488851547241211
      ],
      [
        "▁+",
        -8.489654541015625
      ],
      [
        "▁sa",
        -8.493289947509766
      ],
      [
        "▁doing",
        -8.496785163879395
      ],
      [
        "▁until",
        -8.500024795532227
      ],
      [
        "▁having",
        -8.50243091583252
      ],
      [
        "▁least",
        -8.502975463867188
      ],
      [
        "b",
        -8.503480911254883
      ],
      [
        "▁home",
        -8.504794120788574
      ],
      [
        "▁money",
        -8.504903793334961
      ],
      [
        "▁men",
        -8.51271915435791
      ],
      [
        "▁bad",
        -8.516254425048828
      ],
      [
        "▁To",
        -8.51860237121582
      ],
      [
        "▁getting",
        -8.520440101623535
      ],
      [
        "▁mean",
        -8.526863098144531
      ],
      [
        "the",
        -8.52745246887207
      ],
      [
        "D",
        -8.532785415649414
      ],
      [
        "▁D",
        -8.53337574005127
      ],
      [
        "li",
        -8.538002014160156
      ],
      [
        "▁try",
        -8.538313865661621
      ],
      [
        "k",
        -8.540555953979492
      ],
      [
        "▁–",
        -8.545899391174316
      ],
      [
        "ed",
        -8.554459571838379
      ],
      [
        "▁done",
        -8.561849594116211
      ],
      [
        "▁keep",
        -8.562100410461426
      ],
      [
        "▁return",
        -8.570556640625
      ],
      [
        "▁change",
        -8.572920799255371
      ],
      [
        "▁power",
        -8.578484535217285
      ],
      [
        "▁p",
        -8.580180168151855
      ],
      [
        "▁http",
        -8.58133316040039
      ],
      [
        "▁else",
        -8.582161903381348
      ],
      [
        "▁https",
        -8.582703590393066
      ],
      [
        "▁▁▁▁▁▁",
        -8.58675479888916
      ],
      [
        "▁J",
        -8.587337493896484
      ],
      [
        "▁How",
        -8.588676452636719
      ],
      [
        "▁let",
        -8.592350959777832
      ],
      [
        "▁came",
        -8.594043731689453
      ],
      [
        "▁days",
        -8.595662117004395
      ],
      [
        "▁//",
        -8.59699535369873
      ],
      [
        "▁isn",
        -8.599539756774902
      ],
      [
        "▁P",
        -8.599579811096191
      ],
      [
        "▁called",
        -8.600349426269531
      ],
      [
        "▁second",
        -8.601079940795898
      ],
      [
        "▁team",
        -8.601459503173828
      ],
      [
        "▁show",
        -8.605055809020996
      ],
      [
        "▁went",
        -8.608930587768555
      ],
      [
        "▁free",
        -8.612075805664062
      ],
      [
        "▁per",
        -8.613746643066406
      ],
      [
        "▁able",
        -8.61673641204834
      ],
      [
        "▁problem",
        -8.617806434631348
      ],
      [
        "▁T",
        -8.619795799255371
      ],
      [
        "▁fact",
        -8.62202262878418
      ],
      [
        "▁small",
        -8.623320579528809
      ],
      [
        "}",
        -8.626023292541504
      ],
      [
        "▁U",
        -8.630913734436035
      ],
      [
        "▁hard",
        -8.633630752563477
      ],
      [
        "\",",
        -8.63536548614502
      ],
      [
        "▁once",
        -8.635809898376465
      ],
      [
        "▁et",
        -8.639816284179688
      ],
      [
        "▁either",
        -8.641615867614746
      ],
      [
        "▁seen",
        -8.641901969909668
      ],
      [
        "to",
        -8.644742012023926
      ],
      [
        "—",
        -8.64504337310791
      ],
      [
        "▁nothing",
        -8.648091316223145
      ],
      [
        "es",
        -8.64990234375
      ],
      [
        "▁times",
        -8.650870323181152
      ],
      [
        ".”",
        -8.652722358703613
      ],
      [
        "▁information",
        -8.65616226196289
      ],
      [
        "▁order",
        -8.658113479614258
      ],
      [
        "▁Not",
        -8.659022331237793
      ],
      [
        "▁E",
        -8.659975051879883
      ],
      [
        "▁kind",
        -8.660066604614258
      ],
      [
        "▁making",
        -8.663775444030762
      ],
      [
        "▁family",
        -8.665060997009277
      ],
      [
        "▁school",
        -8.669219017028809
      ],
      [
        "▁l",
        -8.67154598236084
      ],
      [
        "▁makes",
        -8.672164916992188
      ],
      [
        "▁read",
        -8.672670364379883
      ],
      [
        "[",
        -8.67332935333252
      ],
      [
        "▁All",
        -8.67540168762207
      ],
      [
        "www",
        -8.675522804260254
      ],
      [
        "▁government",
        -8.676817893981934
      ],
      [
        "▁real",
        -8.6781005859375
      ],
      [
        "▁told",
        -8.684707641601562
      ],
      [
        "▁trying",
        -8.686725616455078
      ],
      [
        "()",
        -8.688855171203613
      ],
      [
        "▁true",
        -8.689051628112793
      ],
      [
        "▁start",
        -8.691062927246094
      ],
      [
        "▁whole",
        -8.694661140441895
      ],
      [
        "▁side",
        -8.695600509643555
      ],
      [
        "▁looking",
        -8.697683334350586
      ],
      [
        "v",
        -8.697714805603027
      ],
      [
        "▁water",
        -8.698010444641113
      ],
      [
        "▁un",
        -8.699393272399902
      ],
      [
        "▁On",
        -8.709884643554688
      ],
      [
        "▁yet",
        -8.710573196411133
      ],
      [
        "▁reason",
        -8.713829040527344
      ],
      [
        "▁data",
        -8.717288970947266
      ],
      [
        "▁question",
        -8.71744441986084
      ],
      [
        "▁country",
        -8.7176513671875
      ],
      [
        "▁big",
        -8.718119621276855
      ],
      [
        "▁full",
        -8.721864700317383
      ],
      [
        "▁R",
        -8.722725868225098
      ],
      [
        "▁took",
        -8.723133087158203
      ],
      [
        "▁hand",
        -8.725539207458496
      ],
      [
        "。",
        -8.726289749145508
      ],
      [
        "▁won",
        -8.726486206054688
      ],
      [
        "▁car",
        -8.726826667785645
      ],
      [
        "▁e",
        -8.730194091796875
      ],
      [
        "▁idea",
        -8.730978965759277
      ],
      [
        "▁given",
        -8.732325553894043
      ],
      [
        "▁possible",
        -8.734583854675293
      ],
      [
        "▁women",
        -8.736019134521484
      ],
      [
        "▁One",
        -8.736798286437988
      ],
      [
        "▁support",
        -8.741109848022461
      ],
      [
        "f",
        -8.743319511413574
      ],
      [
        "▁God",
        -8.745630264282227
      ],
      [
        "▁tell",
        -8.747674942016602
      ],
      [
        "▁bit",
        -8.74840259552002
      ],
      [
        "and",
        -8.748963356018066
      ],
      [
        "▁means",
        -8.751510620117188
      ],
      [
        "?\"",
        -8.754657745361328
      ],
      [
        "▁At",
        -8.754825592041016
      ],
      [
        "▁later",
        -8.755694389343262
      ],
      [
        "B",
        -8.759501457214355
      ],
      [
        "、",
        -8.759511947631836
      ],
      [
        "▁value",
        -8.761002540588379
      ],
      [
        "▁important",
        -8.764747619628906
      ],
      [
        "▁believe",
        -8.764988899230957
      ],
      [
        "l",
        -8.767829895019531
      ],
      [
        "▁group",
        -8.769834518432617
      ],
      [
        "▁que",
        -8.772777557373047
      ],
      [
        "▁head",
        -8.772891998291016
      ],
      [
        "▁says",
        -8.773590087890625
      ],
      [
        "▁often",
        -8.77674674987793
      ],
      [
        "▁upon",
        -8.777823448181152
      ],
      [
        "g",
        -8.779025077819824
      ],
      [
        "▁level",
        -8.782532691955566
      ],
      [
        "▁Just",
        -8.783580780029297
      ],
      [
        "▁course",
        -8.786506652832031
      ],
      [
        "▁self",
        -8.787371635437012
      ],
      [
        "▁within",
        -8.788304328918457
      ],
      [
        "▁top",
        -8.789863586425781
      ],
      [
        "▁American",
        -8.791767120361328
      ],
      [
        "▁type",
        -8.792563438415527
      ],
      [
        "▁die",
        -8.794095039367676
      ],
      [
        "▁example",
        -8.79594898223877
      ],
      [
        "▁saying",
        -8.8028564453125
      ],
      [
        "▁L",
        -8.806129455566406
      ],
      [
        "▁•",
        -8.807182312011719
      ],
      [
        "▁others",
        -8.808300018310547
      ],
      [
        "div",
        -8.808866500854492
      ],
      [
        "▁week",
        -8.809609413146973
      ],
      [
        "▁shit",
        -8.809730529785156
      ],
      [
        "or",
        -8.810291290283203
      ],
      [
        "▁mind",
        -8.810395240783691
      ],
      [
        "▁almost",
        -8.813396453857422
      ],
      [
        "E",
        -8.815902709960938
      ],
      [
        "▁run",
        -8.818887710571289
      ],
      [
        "▁seems",
        -8.818987846374512
      ],
      [
        "▁line",
        -8.823424339294434
      ],
      [
        "&",
        -8.824496269226074
      ],
      [
        "–",
        -8.826061248779297
      ],
      [
        "▁F",
        -8.826292037963867
      ],
      [
        "▁</",
        -8.830039024353027
      ],
      [
        "▁live",
        -8.836331367492676
      ],
      [
        "▁Category",
        -8.838308334350586
      ],
      [
        "，",
        -8.840773582458496
      ],
      [
        "▁@",
        -8.842450141906738
      ],
      [
        "▁everyone",
        -8.844535827636719
      ],
      [
        "▁large",
        -8.846964836120605
      ],
      [
        "▁rather",
        -8.848705291748047
      ],
      [
        "▁children",
        -8.850656509399414
      ],
      [
        "▁everything",
        -8.851153373718262
      ],
      [
        "▁care",
        -8.85757064819336
      ],
      [
        "▁games",
        -8.85794448852539
      ],
      [
        "▁anyone",
        -8.861191749572754
      ],
      [
        "▁|",
        -8.864946365356445
      ],
      [
        "▁experience",
        -8.865930557250977
      ],
      [
        "▁night",
        -8.872380256652832
      ],
      [
        "▁guy",
        -8.873028755187988
      ],
      [
        "▁Also",
        -8.87353801727295
      ],
      [
        "▁call",
        -8.875103950500488
      ],
      [
        "▁face",
        -8.877896308898926
      ],
      [
        "▁open",
        -8.8794527053833
      ],
      [
        "▁G",
        -8.880799293518066
      ],
      [
        "▁H",
        -8.88611888885498
      ],
      [
        "▁form",
        -8.887446403503418
      ],
      [
        "▁y",
        -8.893685340881348
      ],
      [
        "▁wrong",
        -8.89392375946045
      ],
      [
        "▁job",
        -8.895301818847656
      ],
      [
        "▁become",
        -8.899069786071777
      ],
      [
        "▁house",
        -8.902711868286133
      ],
      [
        "▁following",
        -8.903129577636719
      ],
      [
        "▁working",
        -8.906899452209473
      ],
      [
        "->",
        -8.907076835632324
      ],
      [
        "▁body",
        -8.907898902893066
      ],
      [
        ",”",
        -8.907977104187012
      ],
      [
        "on",
        -8.910283088684082
      ],
      [
        "▁law",
        -8.917261123657227
      ],
      [
        "html",
        -8.918614387512207
      ],
      [
        "T",
        -8.919297218322754
      ],
      [
        "▁story",
        -8.920825004577637
      ],
      [
        "▁der",
        -8.921842575073242
      ],
      [
        "▁control",
        -8.921858787536621
      ],
      [
        "▁non",
        -8.924643516540527
      ],
      [
        "▁together",
        -8.924854278564453
      ],
      [
        "▁understand",
        -8.925396919250488
      ],
      [
        "><",
        -8.933631896972656
      ],
      [
        "></",
        -8.934074401855469
      ],
      [
        "it",
        -8.934490203857422
      ],
      [
        "▁general",
        -8.937501907348633
      ],
      [
        "▁early",
        -8.938520431518555
      ],
      [
        "▁social",
        -8.938985824584961
      ],
      [
        "▁sense",
        -8.940415382385254
      ],
      [
        "▁His",
        -8.946186065673828
      ],
      [
        "▁Mr",
        -8.947562217712402
      ],
      [
        "\\",
        -8.94820785522461
      ],
      [
        "▁half",
        -8.949240684509277
      ],
      [
        "▁matter",
        -8.950057983398438
      ],
      [
        "▁Do",
        -8.950589179992676
      ],
      [
        "▁area",
        -8.9512300491333
      ],
      [
        "▁Thanks",
        -8.951581001281738
      ],
      [
        "▁action",
        -8.953155517578125
      ],
      [
        "(\"",
        -8.953810691833496
      ],
      [
        "▁Trump",
        -8.956365585327148
      ],
      [
        "▁himself",
        -8.962318420410156
      ],
      [
        "ly",
        -8.963693618774414
      ],
      [
        "span",
        -8.966537475585938
      ],
      [
        "▁book",
        -8.971609115600586
      ],
      [
        "▁etc",
        -8.975746154785156
      ],
      [
        "▁Why",
        -8.977362632751465
      ],
      [
        "▁asked",
        -8.978723526000977
      ],
      [
        "▁started",
        -8.978893280029297
      ],
      [
        "▁friends",
        -8.981729507446289
      ],
      [
        "▁war",
        -8.988119125366211
      ],
      [
        "▁human",
        -8.989173889160156
      ],
      [
        "▁saw",
        -8.989408493041992
      ],
      [
        "▁ago",
        -8.990053176879883
      ],
      [
        "▁above",
        -8.99020767211914
      ],
      [
        "▁wanted",
        -8.990687370300293
      ],
      [
        "▁however",
        -8.992327690124512
      ],
      [
        "▁N",
        -8.996967315673828
      ],
      [
        "▁today",
        -8.99757194519043
      ],
      [
        "▁past",
        -8.997836112976074
      ],
      [
        "▁K",
        -8.999990463256836
      ],
      [
        "▁process",
        -9.001055717468262
      ],
      [
        "▁company",
        -9.001374244689941
      ],
      [
        "▁quite",
        -9.00195026397705
      ],
      [
        "▁single",
        -9.002270698547363
      ],
      [
        "▁Then",
        -9.002625465393066
      ],
      [
        "▁business",
        -9.012787818908691
      ],
      [
        "▁pay",
        -9.01381778717041
      ],
      [
        "▁United",
        -9.015429496765137
      ],
      [
        "P",
        -9.016721725463867
      ],
      [
        "::",
        -9.016858100891112
      ],
      [
        "▁based",
        -9.017189979553224
      ],
      [
        "▁several",
        -9.019790649414062
      ],
      [
        "▁O",
        -9.02394962310791
      ],
      [
        "▁months",
        -9.027289390563965
      ],
      [
        "▁hope",
        -9.02869701385498
      ],
      [
        "▁These",
        -9.029827117919922
      ],
      [
        "▁issue",
        -9.029897689819336
      ],
      [
        "▁city",
        -9.030359268188477
      ],
      [
        "▁stuff",
        -9.03077793121338
      ],
      [
        "▁close",
        -9.032593727111816
      ],
      [
        "▁light",
        -9.033638954162598
      ],
      [
        "is",
        -9.03398609161377
      ],
      [
        "▁four",
        -9.035032272338867
      ],
      [
        "▁taken",
        -9.038116455078123
      ],
      [
        "▁function",
        -9.038521766662598
      ],
      [
        "id",
        -9.042278289794922
      ],
      [
        "▁o",
        -9.043710708618164
      ],
      [
        "▁room",
        -9.048437118530272
      ],
      [
        "▁known",
        -9.050000190734863
      ],
      [
        "▁▁▁▁▁▁▁▁▁",
        -9.05030345916748
      ],
      [
        "▁di",
        -9.051483154296877
      ],
      [
        "▁le",
        -9.051613807678224
      ],
      [
        "▁d",
        -9.05495548248291
      ],
      [
        "▁available",
        -9.055859565734863
      ],
      [
        "▁whether",
        -9.056337356567385
      ],
      [
        "▁questions",
        -9.0618257522583
      ],
      [
        "▁в",
        -9.062376976013184
      ],
      [
        "▁white",
        -9.06330394744873
      ],
      [
        "▁wasn",
        -9.064608573913574
      ],
      [
        "▁video",
        -9.06511688232422
      ],
      [
        "▁low",
        -9.069428443908691
      ],
      [
        "▁friend",
        -9.071062088012695
      ],
      [
        "M",
        -9.073349952697754
      ],
      [
        "▁York",
        -9.073404312133787
      ],
      [
        "this",
        -9.078070640563965
      ],
      [
        "▁shall",
        -9.080049514770508
      ],
      [
        "▁along",
        -9.080084800720217
      ],
      [
        "▁history",
        -9.08167552947998
      ],
      [
        "▁W",
        -9.081966400146484
      ],
      [
        "▁‘",
        -9.0823335647583
      ],
      [
        "▁due",
        -9.082499504089355
      ],
      [
        "▁certain",
        -9.083203315734863
      ],
      [
        "▁political",
        -9.083378791809082
      ],
      [
        "▁including",
        -9.083573341369627
      ],
      [
        "▁An",
        -9.08439826965332
      ],
      [
        "▁instead",
        -9.084670066833496
      ],
      [
        "▁However",
        -9.084866523742676
      ],
      [
        "▁Now",
        -9.088648796081545
      ],
      [
        "▁myself",
        -9.089704513549805
      ],
      [
        "▁After",
        -9.090532302856444
      ],
      [
        "▁local",
        -9.09246063232422
      ],
      [
        "▁black",
        -9.09408950805664
      ],
      [
        "▁likely",
        -9.095582008361816
      ],
      [
        "▁THE",
        -9.096044540405272
      ],
      [
        "▁c",
        -9.09696102142334
      ],
      [
        "▁needs",
        -9.09936237335205
      ],
      [
        "▁und",
        -9.100706100463867
      ],
      [
        "▁V",
        -9.100959777832031
      ],
      [
        "▁season",
        -9.102286338806152
      ],
      [
        "▁maybe",
        -9.102409362792969
      ],
      [
        "▁playing",
        -9.104896545410156
      ],
      [
        "▁US",
        -9.105595588684082
      ],
      [
        "▁stop",
        -9.11003589630127
      ],
      [
        "▁John",
        -9.110162734985352
      ],
      [
        "▁comes",
        -9.110483169555664
      ],
      [
        "▁des",
        -9.110539436340332
      ],
      [
        "▁import",
        -9.110756874084473
      ],
      [
        "if",
        -9.11145305633545
      ],
      [
        "▁death",
        -9.111626625061035
      ],
      [
        "▁words",
        -9.111932754516602
      ],
      [
        "▁With",
        -9.112576484680176
      ],
      [
        "▁looks",
        -9.115617752075195
      ],
      [
        "▁University",
        -9.116490364074709
      ],
      [
        "▁hours",
        -9.117813110351562
      ],
      [
        "▁service",
        -9.12037754058838
      ],
      [
        "▁similar",
        -9.120528221130373
      ],
      [
        "▁move",
        -9.120612144470217
      ],
      [
        "▁cannot",
        -9.120894432067873
      ],
      [
        "▁works",
        -9.12535572052002
      ],
      [
        "▁wouldn",
        -9.126322746276855
      ],
      [
        "▁result",
        -9.130427360534668
      ],
      [
        "▁Yeah",
        -9.132238388061523
      ],
      [
        "▁taking",
        -9.132367134094238
      ],
      [
        "▁buy",
        -9.13732624053955
      ],
      [
        "▁Your",
        -9.139147758483888
      ],
      [
        "▁usually",
        -9.139848709106444
      ],
      [
        "▁list",
        -9.140547752380373
      ],
      [
        "();",
        -9.141860961914062
      ],
      [
        "▁young",
        -9.142139434814451
      ],
      [
        "|",
        -9.142148971557615
      ],
      [
        "▁al",
        -9.143067359924316
      ],
      [
        "▁heard",
        -9.143712997436523
      ],
      [
        "▁turn",
        -9.144157409667969
      ],
      [
        "▁fun",
        -9.145705223083496
      ],
      [
        "▁themselves",
        -9.14602756500244
      ],
      [
        "▁href",
        -9.146920204162598
      ],
      [
        "▁among",
        -9.146930694580078
      ],
      [
        "▁Well",
        -9.149060249328612
      ],
      [
        "an",
        -9.153316497802734
      ],
      [
        "▁food",
        -9.154003143310549
      ],
      [
        "▁deal",
        -9.154878616333008
      ],
      [
        "▁Phone",
        -9.155440330505373
      ],
      [
        "▁woman",
        -9.15784740447998
      ],
      [
        "▁Some",
        -9.158780097961426
      ],
      [
        "▁future",
        -9.161571502685549
      ],
      [
        "▁States",
        -9.16489028930664
      ],
      [
        "▁short",
        -9.167116165161133
      ],
      [
        "▁ask",
        -9.167122840881348
      ],
      [
        "▁players",
        -9.169291496276855
      ],
      [
        "▁itself",
        -9.17579174041748
      ],
      [
        "▁seem",
        -9.176734924316406
      ],
      [
        "▁soon",
        -9.176986694335938
      ],
      [
        "▁party",
        -9.178167343139648
      ],
      [
        "▁position",
        -9.17966365814209
      ],
      [
        "▁word",
        -9.179978370666504
      ],
      [
        "▁Please",
        -9.18130111694336
      ],
      [
        "▁coming",
        -9.182415962219238
      ],
      [
        "▁clear",
        -9.183597564697266
      ],
      [
        "▁el",
        -9.184611320495604
      ],
      [
        "▁current",
        -9.1849946975708
      ],
      [
        "▁especially",
        -9.187521934509276
      ],
      [
        "▁test",
        -9.189638137817385
      ],
      [
        "▁present",
        -9.190523147583008
      ],
      [
        "▁nice",
        -9.19448184967041
      ],
      [
        "▁Numbers",
        -9.195775985717772
      ],
      [
        "▁fine",
        -9.196683883666992
      ],
      [
        "▁child",
        -9.198073387145996
      ],
      [
        "▁easy",
        -9.198722839355469
      ],
      [
        "▁community",
        -9.20005702972412
      ],
      [
        "▁Or",
        -9.203794479370115
      ],
      [
        "▁view",
        -9.204004287719728
      ],
      [
        "▁v",
        -9.20567798614502
      ],
      [
        "的",
        -9.207056999206545
      ],
      [
        "▁account",
        -9.208471298217772
      ],
      [
        "▁tried",
        -9.208924293518066
      ],
      [
        "▁main",
        -9.209086418151855
      ],
      [
        "▁title",
        -9.209568977355955
      ],
      [
        "▁se",
        -9.212766647338867
      ],
      [
        "▁common",
        -9.216835975646973
      ],
      [
        "▁talk",
        -9.218612670898438
      ],
      [
        "▁behind",
        -9.219199180603027
      ],
      [
        "▁guys",
        -9.221235275268556
      ],
      [
        "▁и",
        -9.225191116333008
      ],
      [
        "▁private",
        -9.226320266723633
      ],
      [
        "▁yourself",
        -9.22640323638916
      ],
      [
        "org",
        -9.227572441101074
      ],
      [
        "▁leave",
        -9.229192733764648
      ],
      [
        "▁remember",
        -9.229928970336914
      ],
      [
        "▁lost",
        -9.231216430664062
      ],
      [
        "▁talking",
        -9.232521057128906
      ],
      [
        "▁amount",
        -9.235746383666992
      ],
      [
        "▁cause",
        -9.239736557006836
      ],
      [
        "▁near",
        -9.240277290344238
      ],
      [
        "▁character",
        -9.24074363708496
      ],
      [
        "▁knew",
        -9.24152660369873
      ],
      [
        "F",
        -9.24299430847168
      ],
      [
        "▁eyes",
        -9.24543571472168
      ],
      [
        "▁gave",
        -9.245929718017578
      ],
      [
        "▁felt",
        -9.248547554016112
      ],
      [
        "▁looked",
        -9.25074577331543
      ],
      [
        "▁By",
        -9.253280639648438
      ],
      [
        "▁State",
        -9.254106521606444
      ],
      [
        "▁period",
        -9.254289627075195
      ],
      [
        "▁development",
        -9.254545211791992
      ],
      [
        "▁police",
        -9.262371063232422
      ],
      [
        "▁age",
        -9.265728950500488
      ],
      [
        "▁hit",
        -9.266227722167969
      ],
      [
        "▁rest",
        -9.266855239868164
      ],
      [
        "▁Yes",
        -9.266885757446287
      ],
      [
        "▁agree",
        -9.27078914642334
      ],
      [
        "▁front",
        -9.271625518798828
      ],
      [
        "▁thinking",
        -9.2752046585083
      ],
      [
        "▁please",
        -9.27785587310791
      ],
      [
        "▁plan",
        -9.278923988342283
      ],
      [
        "▁situation",
        -9.280747413635254
      ],
      [
        "▁across",
        -9.281259536743164
      ],
      [
        "R",
        -9.2824068069458
      ],
      [
        "▁price",
        -9.284150123596191
      ],
      [
        "▁series",
        -9.28448486328125
      ],
      [
        "▁Can",
        -9.284695625305176
      ],
      [
        "▁OF",
        -9.284740447998049
      ],
      [
        "▁members",
        -9.286054611206056
      ],
      [
        "▁played",
        -9.286277770996094
      ],
      [
        "▁worth",
        -9.291483879089355
      ],
      [
        "▁final",
        -9.292638778686523
      ],
      [
        "の",
        -9.292960166931152
      ],
      [
        "▁▁▁▁▁▁▁▁▁▁▁▁▁",
        -9.293352127075195
      ],
      [
        "▁add",
        -9.294034004211426
      ],
      [
        "▁guess",
        -9.29647731781006
      ],
      [
        "▁study",
        -9.297901153564451
      ],
      [
        "▁outside",
        -9.297966003417969
      ],
      [
        "▁Don",
        -9.297968864440918
      ],
      [
        "▁check",
        -9.298117637634276
      ],
      [
        "get",
        -9.300339698791504
      ],
      [
        "▁issues",
        -9.30105209350586
      ],
      [
        "▁goes",
        -9.302663803100586
      ],
      [
        "▁further",
        -9.305259704589844
      ],
      [
        "▁cost",
        -9.308377265930176
      ],
      [
        "L",
        -9.309138298034668
      ],
      [
        "▁became",
        -9.310748100280762
      ],
      [
        "as",
        -9.313093185424805
      ],
      [
        "▁son",
        -9.313470840454102
      ],
      [
        "▁See",
        -9.314064025878906
      ],
      [
        "▁answer",
        -9.31488800048828
      ],
      [
        "▁music",
        -9.317126274108888
      ],
      [
        "▁aren",
        -9.319199562072754
      ],
      [
        "▁Is",
        -9.322402000427246
      ],
      [
        "▁problems",
        -9.323164939880373
      ],
      [
        "!\"",
        -9.324173927307127
      ],
      [
        "▁comment",
        -9.32594871520996
      ],
      [
        "…",
        -9.326353073120115
      ],
      [
        "▁gets",
        -9.327251434326172
      ],
      [
        "▁million",
        -9.328054428100586
      ],
      [
        "▁month",
        -9.328710556030272
      ],
      [
        "▁market",
        -9.328795433044434
      ],
      [
        "▁health",
        -9.329123497009276
      ],
      [
        "▁moment",
        -9.329316139221191
      ],
      [
        "▁land",
        -9.329504013061523
      ],
      [
        "▁space",
        -9.330079078674316
      ],
      [
        "▁content",
        -9.330303192138672
      ],
      [
        "▁five",
        -9.33078956604004
      ],
      [
        "▁interest",
        -9.332149505615234
      ],
      [
        "K",
        -9.332990646362305
      ],
      [
        "▁major",
        -9.333700180053713
      ],
      [
        "▁definitely",
        -9.337203979492188
      ],
      [
        "us",
        -9.338458061218262
      ],
      [
        "▁completely",
        -9.339009284973145
      ],
      [
        "▁effect",
        -9.339174270629885
      ],
      [
        "▁happened",
        -9.340301513671877
      ],
      [
        "▁size",
        -9.341802597045898
      ],
      [
        "H",
        -9.34309196472168
      ],
      [
        "▁longer",
        -9.346359252929688
      ],
      [
        "▁original",
        -9.346792221069336
      ],
      [
        "td",
        -9.348662376403809
      ],
      [
        "▁fucking",
        -9.350895881652832
      ],
      [
        "▁living",
        -9.351975440979004
      ],
      [
        "▁Oh",
        -9.352510452270508
      ],
      [
        "▁contact",
        -9.35289478302002
      ],
      [
        "▁La",
        -9.353497505187988
      ],
      [
        "▁higher",
        -9.354387283325195
      ],
      [
        "):",
        -9.356374740600586
      ],
      [
        "▁English",
        -9.357606887817385
      ],
      [
        "▁win",
        -9.35993766784668
      ],
      [
        "▁hear",
        -9.361568450927734
      ],
      [
        "▁air",
        -9.36236572265625
      ],
      [
        "▁points",
        -9.362842559814451
      ],
      [
        "▁del",
        -9.36362361907959
      ],
      [
        "▁version",
        -9.36391544342041
      ],
      [
        "return",
        -9.364883422851562
      ],
      [
        "▁r",
        -9.365354537963867
      ],
      [
        "▁*/",
        -9.366456031799316
      ],
      [
        "▁Even",
        -9.37221336364746
      ],
      [
        "▁player",
        -9.3728666305542
      ],
      [
        "▁sometimes",
        -9.373016357421877
      ],
      [
        "▁late",
        -9.37320327758789
      ],
      [
        "▁couple",
        -9.37398624420166
      ],
      [
        "а",
        -9.374770164489746
      ],
      [
        "▁sound",
        -9.375064849853516
      ],
      [
        "▁field",
        -9.376115798950195
      ],
      [
        "▁mother",
        -9.378318786621094
      ],
      [
        "▁report",
        -9.380341529846191
      ],
      [
        "▁language",
        -9.380770683288574
      ],
      [
        "▁total",
        -9.384391784667969
      ],
      [
        "▁personal",
        -9.386046409606934
      ],
      [
        "▁terms",
        -9.387436866760254
      ],
      [
        "▁watch",
        -9.388051986694336
      ],
      [
        "▁simply",
        -9.39093017578125
      ],
      [
        "▁force",
        -9.391834259033203
      ],
      [
        "▁added",
        -9.39335823059082
      ],
      [
        "▁running",
        -9.394679069519045
      ],
      [
        "▁du",
        -9.394758224487305
      ],
      [
        "▁strong",
        -9.396883010864258
      ],
      [
        "▁rate",
        -9.397679328918455
      ],
      [
        "▁girl",
        -9.398369789123535
      ],
      [
        "▁needed",
        -9.398534774780272
      ],
      [
        "▁held",
        -9.400909423828123
      ],
      [
        "▁special",
        -9.401447296142578
      ],
      [
        "▁father",
        -9.401787757873535
      ],
      [
        "▁provide",
        -9.401911735534668
      ],
      [
        "▁evidence",
        -9.402899742126465
      ],
      [
        "▁St",
        -9.403401374816896
      ],
      [
        "▁specific",
        -9.4046630859375
      ],
      [
        "▁на",
        -9.407333374023438
      ],
      [
        "▁turned",
        -9.407357215881348
      ],
      [
        "▁research",
        -9.407697677612305
      ],
      [
        "▁minutes",
        -9.408888816833496
      ],
      [
        "▁building",
        -9.40914535522461
      ],
      [
        "▁From",
        -9.411041259765623
      ],
      [
        "▁America",
        -9.413530349731444
      ],
      [
        "▁happen",
        -9.41496467590332
      ],
      [
        "▁happy",
        -9.41615104675293
      ],
      [
        "▁bring",
        -9.419266700744627
      ],
      [
        "name",
        -9.419915199279783
      ],
      [
        "z",
        -9.42016315460205
      ],
      [
        "▁nature",
        -9.420445442199709
      ],
      [
        "▁exactly",
        -9.424251556396484
      ],
      [
        "▁fire",
        -9.42739963531494
      ],
      [
        "▁Here",
        -9.429211616516112
      ],
      [
        "▁heart",
        -9.43308925628662
      ],
      [
        "▁produced",
        -9.433391571044922
      ],
      [
        "▁entire",
        -9.434226989746094
      ],
      [
        "\":",
        -9.434311866760254
      ],
      [
        "▁phone",
        -9.43450164794922
      ],
      [
        "▁à",
        -9.435599327087402
      ],
      [
        "▁b",
        -9.436189651489258
      ],
      [
        "▁build",
        -9.436479568481444
      ],
      [
        "▁file",
        -9.437207221984863
      ],
      [
        "▁page",
        -9.437257766723633
      ],
      [
        "N",
        -9.437541961669922
      ],
      [
        "▁difference",
        -9.437678337097168
      ],
      [
        "no",
        -9.438075065612791
      ],
      [
        "▁model",
        -9.438557624816896
      ],
      [
        "▁quality",
        -9.438888549804688
      ],
      [
        "▁fuck",
        -9.439908027648926
      ],
      [
        "It",
        -9.440322875976562
      ],
      [
        "▁particular",
        -9.445773124694824
      ],
      [
        "We",
        -9.4469633102417
      ],
      [
        "▁:)",
        -9.44907569885254
      ],
      [
        "▁results",
        -9.451122283935549
      ],
      [
        "▁program",
        -9.451237678527832
      ],
      [
        "▁President",
        -9.451565742492676
      ],
      [
        "▁office",
        -9.451874732971191
      ],
      [
        "▁subject",
        -9.452085494995115
      ],
      [
        "▁cut",
        -9.452119827270508
      ],
      [
        "▁Good",
        -9.454976081848145
      ],
      [
        "man",
        -9.455639839172363
      ],
      [
        "е",
        -9.45664882659912
      ],
      [
        "▁simple",
        -9.457440376281738
      ],
      [
        "▁source",
        -9.458009719848633
      ],
      [
        "▁relationship",
        -9.460723876953123
      ],
      [
        "▁door",
        -9.461943626403809
      ],
      [
        "▁lol",
        -9.46373462677002
      ],
      [
        "▁South",
        -9.464261054992676
      ],
      [
        "▁shows",
        -9.468371391296388
      ],
      [
        "▁necessary",
        -9.468809127807615
      ],
      [
        "▁hands",
        -9.469040870666504
      ],
      [
        "▁chance",
        -9.470540046691896
      ],
      [
        "▁required",
        -9.47083854675293
      ],
      [
        "▁include",
        -9.47147274017334
      ],
      [
        "▁alone",
        -9.47158145904541
      ],
      [
        "▁sub",
        -9.471600532531738
      ],
      [
        "▁weeks",
        -9.474812507629396
      ],
      [
        "▁brought",
        -9.474985122680664
      ],
      [
        "▁began",
        -9.476510047912598
      ],
      [
        "▁opinion",
        -9.47779655456543
      ],
      [
        "▁Maybe",
        -9.48069667816162
      ],
      [
        "▁n",
        -9.48111057281494
      ],
      [
        "▁role",
        -9.484793663024902
      ],
      [
        "▁wife",
        -9.486446380615234
      ],
      [
        "▁u",
        -9.486754417419434
      ],
      [
        "▁news",
        -9.487505912780762
      ],
      [
        "▁site",
        -9.489052772521973
      ],
      [
        "▁design",
        -9.489668846130373
      ],
      [
        "▁third",
        -9.490035057067873
      ],
      [
        "▁according",
        -9.490349769592283
      ],
      [
        "▁World",
        -9.491888999938965
      ],
      [
        "of",
        -9.492579460144045
      ],
      [
        "▁Thank",
        -9.492677688598633
      ],
      [
        "▁haven",
        -9.493075370788574
      ],
      [
        "▁trade",
        -9.493568420410156
      ],
      [
        "('",
        -9.49360179901123
      ],
      [
        "▁May",
        -9.496439933776855
      ],
      [
        "▁rights",
        -9.497584342956545
      ],
      [
        "▁create",
        -9.497961044311523
      ],
      [
        "▁X",
        -9.498495101928713
      ],
      [
        "▁policy",
        -9.499567985534668
      ],
      [
        "▁hold",
        -9.50098991394043
      ],
      [
        "▁ground",
        -9.501686096191406
      ],
      [
        "▁learn",
        -9.502413749694824
      ],
      [
        "▁kids",
        -9.502684593200684
      ],
      [
        "▁style",
        -9.504082679748535
      ],
      [
        "▁changes",
        -9.505243301391602
      ],
      [
        "▁Of",
        -9.505868911743164
      ],
      [
        "▁parents",
        -9.507153511047363
      ],
      [
        "▁House",
        -9.507357597351074
      ],
      [
        "▁former",
        -9.508191108703612
      ],
      [
        "j",
        -9.508672714233398
      ],
      [
        "▁base",
        -9.511312484741213
      ],
      [
        "O",
        -9.512253761291504
      ],
      [
        "▁damage",
        -9.512901306152344
      ],
      [
        "▁cool",
        -9.513544082641602
      ],
      [
        "▁key",
        -9.513660430908203
      ],
      [
        "▁knowledge",
        -9.513867378234863
      ],
      [
        "▁considered",
        -9.51536464691162
      ],
      [
        "▁x",
        -9.515944480895996
      ],
      [
        "▁countries",
        -9.51679515838623
      ],
      [
        "▁individual",
        -9.516952514648438
      ],
      [
        "▁cases",
        -9.517382621765137
      ],
      [
        "▁below",
        -9.517443656921388
      ],
      [
        "▁takes",
        -9.5177640914917
      ],
      [
        "▁court",
        -9.518704414367676
      ],
      [
        "▁Because",
        -9.519804000854492
      ],
      [
        "▁sort",
        -9.520513534545898
      ],
      [
        "G",
        -9.520584106445312
      ],
      [
        "▁ones",
        -9.522933959960938
      ],
      [
        "imgur",
        -9.522988319396973
      ],
      [
        "▁various",
        -9.524372100830078
      ],
      [
        "▁wait",
        -9.526778221130373
      ],
      [
        "▁dead",
        -9.526796340942385
      ],
      [
        "▁w",
        -9.527520179748535
      ],
      [
        "▁sent",
        -9.52761459350586
      ],
      [
        "▁media",
        -9.52777099609375
      ],
      [
        "▁red",
        -9.528493881225586
      ],
      [
        "▁date",
        -9.52952003479004
      ],
      [
        "▁whatever",
        -9.531593322753906
      ],
      [
        "▁worked",
        -9.531893730163574
      ],
      [
        "▁First",
        -9.53221607208252
      ],
      [
        "▁=>",
        -9.53235912322998
      ],
      [
        "▁While",
        -9.533853530883787
      ],
      [
        "▁reading",
        -9.534046173095703
      ],
      [
        "▁stay",
        -9.534344673156738
      ],
      [
        "▁normal",
        -9.535372734069824
      ],
      [
        "▁text",
        -9.53584098815918
      ],
      [
        "▁lower",
        -9.537737846374512
      ],
      [
        "▁couldn",
        -9.537912368774414
      ],
      [
        "▁break",
        -9.537920951843262
      ],
      [
        "▁students",
        -9.539823532104492
      ],
      [
        "▁difficult",
        -9.543012619018556
      ],
      [
        "▁les",
        -9.544788360595703
      ],
      [
        "▁fight",
        -9.54485321044922
      ],
      [
        "▁sex",
        -9.545016288757324
      ],
      [
        "▁response",
        -9.545830726623535
      ],
      [
        "▁range",
        -9.547934532165527
      ],
      [
        "▁super",
        -9.548200607299805
      ],
      [
        "▁decision",
        -9.548731803894045
      ],
      [
        "▁National",
        -9.553549766540527
      ],
      [
        "ul",
        -9.55389404296875
      ],
      [
        "▁attention",
        -9.55453872680664
      ],
      [
        "▁shot",
        -9.55551528930664
      ],
      [
        "You",
        -9.55888557434082
      ],
      [
        "▁rules",
        -9.559319496154783
      ],
      [
        "▁whose",
        -9.560124397277832
      ],
      [
        "▁art",
        -9.56028938293457
      ],
      [
        "code",
        -9.560904502868652
      ],
      [
        "▁North",
        -9.560919761657717
      ],
      [
        "▁written",
        -9.563751220703123
      ],
      [
        "▁act",
        -9.564522743225098
      ],
      [
        "▁hate",
        -9.564746856689451
      ],
      [
        "▁interesting",
        -9.565791130065918
      ],
      [
        "▁national",
        -9.566143989562988
      ],
      [
        "▁towards",
        -9.566431045532228
      ],
      [
        "▁project",
        -9.56830596923828
      ],
      [
        "▁void",
        -9.569456100463867
      ],
      [
        "▁morning",
        -9.57399559020996
      ],
      [
        "и",
        -9.574251174926758
      ],
      [
        "▁con",
        -9.574345588684082
      ],
      [
        "▁«",
        -9.57485008239746
      ],
      [
        "▁section",
        -9.575316429138184
      ],
      [
        "▁society",
        -9.57748317718506
      ],
      [
        "▁na",
        -9.578168869018556
      ],
      [
        "▁wish",
        -9.580458641052246
      ],
      [
        "▁event",
        -9.58067798614502
      ],
      [
        "▁received",
        -9.582565307617188
      ],
      [
        "W",
        -9.582629203796388
      ],
      [
        "▁actual",
        -9.58542537689209
      ],
      [
        "▁inside",
        -9.588083267211914
      ],
      [
        "▁attack",
        -9.588290214538574
      ],
      [
        "▁thanks",
        -9.588459968566896
      ],
      [
        "▁Most",
        -9.589305877685549
      ],
      [
        "▁People",
        -9.58957290649414
      ],
      [
        "▁complete",
        -9.590309143066406
      ],
      [
        "▁feeling",
        -9.592255592346191
      ],
      [
        "▁British",
        -9.592726707458496
      ],
      [
        "al",
        -9.593792915344238
      ],
      [
        "▁groups",
        -9.594088554382324
      ],
      [
        "▁military",
        -9.594717025756836
      ],
      [
        "▁writing",
        -9.597158432006836
      ],
      [
        "▁term",
        -9.597168922424316
      ],
      [
        "▁card",
        -9.599325180053713
      ],
      [
        "▁kill",
        -9.601452827453612
      ],
      [
        "▁Like",
        -9.60268497467041
      ],
      [
        "▁gone",
        -9.605585098266602
      ],
      [
        "▁energy",
        -9.605805397033691
      ],
      [
        "▁ways",
        -9.60645580291748
      ],
      [
        "▁town",
        -9.607250213623049
      ],
      [
        "▁lead",
        -9.608463287353516
      ],
      [
        "▁average",
        -9.610931396484377
      ],
      [
        "\"><",
        -9.611846923828123
      ],
      [
        "w",
        -9.612181663513184
      ],
      [
        "▁poor",
        -9.612448692321776
      ],
      [
        "▁increase",
        -9.612563133239746
      ],
      [
        "▁im",
        -9.61519718170166
      ],
      [
        "▁Are",
        -9.615843772888184
      ],
      [
        "▁giving",
        -9.616188049316406
      ],
      [
        "$",
        -9.616873741149902
      ],
      [
        "▁link",
        -9.61756706237793
      ],
      [
        "▁method",
        -9.618535995483398
      ],
      [
        "▁article",
        -9.61855697631836
      ],
      [
        "▁forward",
        -9.62085247039795
      ],
      [
        "▁access",
        -9.621129989624023
      ],
      [
        "▁share",
        -9.621596336364746
      ],
      [
        "▁message",
        -9.62287712097168
      ],
      [
        "▁City",
        -9.624982833862305
      ],
      [
        "▁economic",
        -9.625086784362791
      ],
      [
        "▁...",
        -9.625970840454102
      ],
      [
        "▁six",
        -9.626397132873535
      ],
      [
        "▁huge",
        -9.626919746398926
      ],
      [
        "▁property",
        -9.62746524810791
      ],
      [
        "▁online",
        -9.62804126739502
      ],
      [
        "▁parts",
        -9.629989624023438
      ],
      [
        "▁War",
        -9.630959510803224
      ],
      [
        "▁consider",
        -9.631378173828123
      ],
      [
        "▁table",
        -9.631675720214844
      ],
      [
        "▁percent",
        -9.632328987121582
      ],
      [
        "year",
        -9.632719993591309
      ],
      [
        "▁code",
        -9.634220123291016
      ],
      [
        "▁easily",
        -9.635021209716797
      ],
      [
        "jpg",
        -9.635257720947266
      ],
      [
        "▁removed",
        -9.638209342956545
      ],
      [
        "▁met",
        -9.639169692993164
      ],
      [
        "▁yes",
        -9.639642715454102
      ],
      [
        "▁da",
        -9.639872550964355
      ],
      [
        "▁except",
        -9.64252758026123
      ],
      [
        "▁London",
        -9.644491195678713
      ],
      [
        "▁II",
        -9.64913558959961
      ],
      [
        "▁paper",
        -9.649667739868164
      ],
      [
        "▁states",
        -9.649691581726074
      ],
      [
        "▁expect",
        -9.65256690979004
      ],
      [
        "▁follow",
        -9.65285873413086
      ],
      [
        "▁natural",
        -9.654192924499512
      ],
      [
        "▁image",
        -9.65588092803955
      ],
      [
        "▁Germany",
        -9.657567024230955
      ],
      [
        "▁vote",
        -9.657715797424316
      ],
      [
        "▁practice",
        -9.658799171447754
      ],
      [
        "▁picture",
        -9.65941047668457
      ],
      [
        "▁voice",
        -9.659857749938965
      ],
      [
        "▁continue",
        -9.659951210021973
      ],
      [
        "▁conditions",
        -9.660594940185549
      ],
      [
        "for",
        -9.661473274230955
      ],
      [
        "▁education",
        -9.661628723144531
      ],
      [
        "▁figure",
        -9.66215991973877
      ],
      [
        "▁decided",
        -9.66238021850586
      ],
      [
        "▁therefore",
        -9.662836074829102
      ],
      [
        "▁film",
        -9.663687705993652
      ],
      [
        "▁seemed",
        -9.66387176513672
      ],
      [
        "▁Let",
        -9.664313316345217
      ],
      [
        "▁De",
        -9.665759086608888
      ],
      [
        "▁unless",
        -9.666874885559082
      ],
      [
        "▁choice",
        -9.667537689208984
      ],
      [
        "▁allowed",
        -9.668581008911133
      ],
      [
        "▁statement",
        -9.66908836364746
      ],
      [
        "#",
        -9.670122146606444
      ],
      [
        "▁provided",
        -9.67116641998291
      ],
      [
        "▁thus",
        -9.673791885375977
      ],
      [
        "▁Great",
        -9.6742525100708
      ],
      [
        "▁population",
        -9.674273490905762
      ],
      [
        "年",
        -9.67446994781494
      ],
      [
        "▁subreddit",
        -9.67543125152588
      ],
      [
        "▁perfect",
        -9.675467491149902
      ],
      [
        "▁services",
        -9.6759614944458
      ],
      [
        "V",
        -9.679491996765137
      ],
      [
        "▁expected",
        -9.680304527282717
      ],
      [
        "▁West",
        -9.680582046508787
      ],
      [
        "▁AND",
        -9.68064022064209
      ],
      [
        "▁wants",
        -9.680843353271484
      ],
      [
        "▁paid",
        -9.682310104370115
      ],
      [
        "de",
        -9.682939529418944
      ],
      [
        "▁production",
        -9.68306827545166
      ],
      [
        "▁sounds",
        -9.68313217163086
      ],
      [
        "▁stand",
        -9.68321418762207
      ],
      [
        "▁material",
        -9.68513298034668
      ],
      [
        "▁middle",
        -9.685672760009766
      ],
      [
        "▁areas",
        -9.686481475830078
      ],
      [
        "▁fall",
        -9.687755584716797
      ],
      [
        "▁involved",
        -9.688396453857422
      ],
      [
        "J",
        -9.688648223876951
      ],
      [
        "▁pick",
        -9.690082550048828
      ],
      [
        "▁fast",
        -9.6909761428833
      ],
      [
        "▁den",
        -9.691047668457031
      ],
      [
        "X",
        -9.693653106689451
      ],
      [
        "▁||",
        -9.696327209472656
      ],
      [
        "▁finally",
        -9.6968994140625
      ],
      [
        "up",
        -9.69780445098877
      ],
      [
        "▁China",
        -9.69915008544922
      ],
      [
        "▁meet",
        -9.699612617492676
      ],
      [
        "▁shown",
        -9.69963264465332
      ],
      [
        "▁record",
        -9.700515747070312
      ],
      [
        "▁false",
        -9.701601028442385
      ],
      [
        "▁pass",
        -9.70176601409912
      ],
      [
        "▁feet",
        -9.702357292175291
      ],
      [
        "▁gives",
        -9.70705795288086
      ],
      [
        "\r",
        -9.70866584777832
      ],
      [
        "▁offer",
        -9.709476470947266
      ],
      [
        "▁died",
        -9.710285186767578
      ],
      [
        "▁although",
        -9.71155071258545
      ],
      [
        "▁recent",
        -9.712438583374023
      ],
      [
        "▁recently",
        -9.713217735290527
      ],
      [
        "▁Press",
        -9.713653564453123
      ],
      [
        "▁movie",
        -9.713981628417969
      ],
      [
        "▁French",
        -9.715529441833496
      ],
      [
        "▁Her",
        -9.716154098510742
      ],
      [
        "▁ready",
        -9.719792366027832
      ],
      [
        "▁generally",
        -9.720257759094238
      ],
      [
        "▁Dr",
        -9.720614433288574
      ],
      [
        "▁product",
        -9.720991134643556
      ],
      [
        "▁allow",
        -9.721460342407228
      ],
      [
        "▁color",
        -9.72182559967041
      ],
      [
        "▁--",
        -9.722725868225098
      ],
      [
        "▁killed",
        -9.72314453125
      ],
      [
        "▁wrote",
        -9.723613739013672
      ],
      [
        "▁built",
        -9.726326942443848
      ],
      [
        "▁hair",
        -9.728110313415527
      ],
      [
        "▁rule",
        -9.730474472045898
      ],
      [
        "▁step",
        -9.730892181396484
      ],
      [
        "▁store",
        -9.732466697692873
      ],
      [
        "▁blood",
        -9.73346710205078
      ],
      [
        "▁changed",
        -9.735621452331545
      ],
      [
        "▁write",
        -9.737088203430176
      ],
      [
        "▁save",
        -9.73827075958252
      ],
      [
        "type",
        -9.738327980041504
      ],
      [
        "▁legal",
        -9.739055633544922
      ],
      [
        "▁performance",
        -9.740022659301758
      ],
      [
        "▁weight",
        -9.740614891052246
      ],
      [
        "▁gonna",
        -9.742057800292969
      ],
      [
        "▁literally",
        -9.74282932281494
      ],
      [
        "▁security",
        -9.743045806884766
      ],
      [
        "▁interested",
        -9.743401527404783
      ],
      [
        "▁perhaps",
        -9.744233131408691
      ],
      [
        "▁quickly",
        -9.744324684143066
      ],
      [
        "▁Our",
        -9.746538162231444
      ],
      [
        "▁century",
        -9.747364044189451
      ],
      [
        "▁hour",
        -9.749431610107422
      ],
      [
        "▁kept",
        -9.750401496887209
      ],
      [
        "▁theory",
        -9.751470565795898
      ],
      [
        "▁member",
        -9.751673698425291
      ],
      [
        "▁tax",
        -9.75174045562744
      ],
      [
        "▁pre",
        -9.752281188964844
      ],
      [
        "▁ability",
        -9.752433776855469
      ],
      [
        "▁earlier",
        -9.75322437286377
      ],
      [
        "▁respect",
        -9.753628730773926
      ],
      [
        "▁training",
        -9.75444507598877
      ],
      [
        "を",
        -9.755480766296388
      ],
      [
        "▁books",
        -9.758001327514648
      ],
      [
        "▁enjoy",
        -9.758420944213867
      ],
      [
        "nbsp",
        -9.7584810256958
      ],
      [
        "▁created",
        -9.758760452270508
      ],
      [
        "class",
        -9.7597017288208
      ],
      [
        "▁seeing",
        -9.759881019592283
      ],
      [
        "▁nor",
        -9.76015853881836
      ],
      [
        "▁automatically",
        -9.76128101348877
      ],
      [
        "▁drive",
        -9.7625150680542
      ],
      [
        "▁purpose",
        -9.762676239013672
      ],
      [
        "▁related",
        -9.763705253601074
      ],
      [
        "▁potential",
        -9.763708114624023
      ],
      [
        "▁included",
        -9.764297485351562
      ],
      [
        "▁clearly",
        -9.7646484375
      ],
      [
        "▁president",
        -9.76555061340332
      ],
      [
        "▁General",
        -9.767105102539062
      ],
      [
        "▁currently",
        -9.769328117370604
      ],
      [
        "▁object",
        -9.769864082336426
      ],
      [
        "▁advice",
        -9.770588874816896
      ],
      [
        "▁comments",
        -9.77151107788086
      ],
      [
        "▁road",
        -9.77418041229248
      ],
      [
        "▁f",
        -9.774828910827637
      ],
      [
        "▁popular",
        -9.775002479553224
      ],
      [
        "▁argument",
        -9.775680541992188
      ],
      [
        "▁==",
        -9.77683162689209
      ],
      [
        "▁lives",
        -9.776939392089844
      ],
      [
        "▁industry",
        -9.779035568237305
      ],
      [
        "▁concerns",
        -9.780316352844238
      ],
      [
        "▁England",
        -9.780426025390623
      ],
      [
        "▁serious",
        -9.780743598937988
      ],
      [
        "▁fit",
        -9.781678199768066
      ],
      [
        "▁Lord",
        -9.784299850463867
      ],
      [
        "▁meant",
        -9.784387588500977
      ],
      [
        "▁mine",
        -9.785452842712402
      ],
      [
        "▁events",
        -9.78563117980957
      ],
      [
        "▁correct",
        -9.785736083984377
      ],
      [
        "▁speed",
        -9.786028861999512
      ],
      [
        "▁pp",
        -9.787556648254396
      ],
      [
        "▁extra",
        -9.788411140441896
      ],
      [
        "▁worse",
        -9.7886323928833
      ],
      [
        "▁nearly",
        -9.788678169250488
      ],
      [
        "▁Any",
        -9.788862228393556
      ],
      [
        "▁doubt",
        -9.790143966674805
      ],
      [
        "▁amazing",
        -9.790748596191406
      ],
      [
        "▁dont",
        -9.790982246398926
      ],
      [
        "▁send",
        -9.791085243225098
      ],
      [
        "▁standard",
        -9.793622970581056
      ],
      [
        "▁round",
        -9.794476509094238
      ],
      [
        "▁release",
        -9.794862747192385
      ],
      [
        "▁von",
        -9.794971466064451
      ],
      [
        "▁movement",
        -9.795697212219238
      ],
      [
        "▁King",
        -9.79653263092041
      ],
      [
        "▁whom",
        -9.798055648803713
      ],
      [
        "▁companies",
        -9.79824161529541
      ],
      [
        "▁eat",
        -9.798991203308104
      ],
      [
        "▁board",
        -9.79926300048828
      ],
      [
        "▁risk",
        -9.799747467041016
      ],
      [
        "▁awesome",
        -9.801362991333008
      ],
      [
        "▁beginning",
        -9.801806449890137
      ],
      [
        "▁truth",
        -9.806574821472168
      ],
      [
        "▁immediately",
        -9.806775093078612
      ],
      [
        "▁moved",
        -9.810139656066896
      ],
      [
        "▁var",
        -9.81015968322754
      ],
      [
        "................",
        -9.810225486755373
      ],
      [
        "▁directly",
        -9.81049346923828
      ],
      [
        "▁performed",
        -9.810561180114746
      ],
      [
        "be",
        -9.81113338470459
      ],
      [
        "▁physical",
        -9.81155776977539
      ],
      [
        "▁modern",
        -9.812355041503906
      ],
      [
        "▁beyond",
        -9.814234733581545
      ],
      [
        "▁lines",
        -9.815133094787598
      ],
      [
        "▁lose",
        -9.815277099609377
      ],
      [
        "▁culture",
        -9.815638542175291
      ],
      [
        "▁certainly",
        -9.816011428833008
      ],
      [
        "▁More",
        -9.816118240356444
      ],
      [
        "▁places",
        -9.817023277282717
      ],
      [
        "▁college",
        -9.817651748657228
      ],
      [
        ">\r",
        -9.817781448364258
      ],
      [
        "▁analysis",
        -9.818305015563965
      ],
      [
        "▁led",
        -9.82125759124756
      ],
      [
        "▁Washington",
        -9.821392059326172
      ],
      [
        "▁straight",
        -9.822139739990234
      ],
      [
        "▁Since",
        -9.8233060836792
      ],
      [
        "data",
        -9.824295043945312
      ],
      [
        "▁White",
        -9.82675552368164
      ],
      [
        "tr",
        -9.826773643493652
      ],
      [
        "▁June",
        -9.82680606842041
      ],
      [
        "▁speak",
        -9.827281951904297
      ],
      [
        "▁note",
        -9.82748031616211
      ],
      [
        "▁thread",
        -9.827902793884276
      ],
      [
        "▁ideas",
        -9.828095436096191
      ],
      [
        "▁happens",
        -9.82845973968506
      ],
      [
        "▁beautiful",
        -9.830403327941896
      ],
      [
        "▁dark",
        -9.830857276916504
      ],
      [
        "▁dog",
        -9.83120059967041
      ],
      [
        "▁loss",
        -9.83281421661377
      ],
      [
        "▁match",
        -9.832833290100098
      ],
      [
        "▁approach",
        -9.833118438720703
      ],
      [
        "▁nga",
        -9.833404541015623
      ],
      [
        "▁Europe",
        -9.834875106811523
      ],
      [
        "set",
        -9.83618450164795
      ],
      [
        "▁deep",
        -9.837148666381836
      ],
      [
        "▁letter",
        -9.837209701538086
      ],
      [
        "▁numbers",
        -9.837651252746582
      ],
      [
        "▁India",
        -9.8377046585083
      ],
      [
        "▁fair",
        -9.83801555633545
      ],
      [
        "▁race",
        -9.838112831115724
      ],
      [
        "▁absolutely",
        -9.83852767944336
      ],
      [
        "▁March",
        -9.838610649108888
      ],
      [
        "▁Which",
        -9.838945388793944
      ],
      [
        "▁fan",
        -9.840875625610352
      ],
      [
        "▁sorry",
        -9.842467308044434
      ],
      [
        "time",
        -9.843403816223145
      ],
      [
        "▁basically",
        -9.843685150146484
      ],
      [
        "▁Man",
        -9.844895362854004
      ],
      [
        "▁growth",
        -9.84786891937256
      ],
      [
        "▁van",
        -9.84817123413086
      ],
      [
        "▁context",
        -9.848244667053224
      ],
      [
        "▁piece",
        -9.848793983459473
      ],
      [
        "▁oil",
        -9.849613189697266
      ],
      [
        "▁reported",
        -9.85065746307373
      ],
      [
        "▁meeting",
        -9.851643562316896
      ],
      [
        "▁sign",
        -9.852014541625977
      ],
      [
        "▁gun",
        -9.852069854736328
      ],
      [
        "▁reasons",
        -9.852641105651855
      ],
      [
        "▁pressure",
        -9.853038787841797
      ],
      [
        "▁spent",
        -9.85304069519043
      ],
      [
        "▁Who",
        -9.853433609008787
      ],
      [
        "▁option",
        -9.855907440185549
      ],
      [
        "▁lack",
        -9.856263160705566
      ],
      [
        "у",
        -9.85682201385498
      ],
      [
        "▁systems",
        -9.85734748840332
      ],
      [
        "▁bot",
        -9.858078002929688
      ],
      [
        "▁passed",
        -9.858256340026855
      ],
      [
        "▁Act",
        -9.859304428100586
      ],
      [
        "▁values",
        -9.859490394592283
      ],
      [
        "▁anti",
        -9.859514236450195
      ],
      [
        "▁box",
        -9.86002254486084
      ],
      [
        "▁yeah",
        -9.861001968383787
      ],
      [
        "▁mentioned",
        -9.86245346069336
      ],
      [
        "▁starting",
        -9.862607955932615
      ],
      [
        "String",
        -9.86262035369873
      ],
      [
        "▁Black",
        -9.862992286682127
      ],
      [
        "▁July",
        -9.865160942077637
      ],
      [
        "▁safe",
        -9.865999221801758
      ],
      [
        "▁toward",
        -9.866366386413574
      ],
      [
        "▁double",
        -9.866551399230955
      ],
      [
        "▁characters",
        -9.86870002746582
      ],
      [
        "▁Its",
        -9.868817329406738
      ],
      [
        "▁sell",
        -9.869203567504885
      ],
      [
        "▁previous",
        -9.869359970092772
      ],
      [
        "▁April",
        -9.87033748626709
      ],
      [
        "▁bought",
        -9.87041187286377
      ],
      [
        "▁direct",
        -9.87064266204834
      ],
      [
        "▁science",
        -9.871288299560549
      ],
      [
        "▁German",
        -9.871402740478516
      ],
      [
        "▁gold",
        -9.87204647064209
      ],
      [
        "▁pain",
        -9.872099876403809
      ],
      [
        "▁charge",
        -9.87214183807373
      ],
      [
        "▁cover",
        -9.872241973876951
      ],
      [
        "▁hot",
        -9.873875617980955
      ],
      [
        "▁James",
        -9.874204635620115
      ],
      [
        "▁favorite",
        -9.874367713928224
      ],
      [
        "▁wall",
        -9.875133514404297
      ],
      [
        "▁effects",
        -9.875432014465332
      ],
      [
        "▁discussion",
        -9.87592887878418
      ],
      [
        "text",
        -9.876092910766602
      ],
      [
        "▁greater",
        -9.876530647277832
      ],
      [
        "▁id",
        -9.877289772033691
      ],
      [
        "▁hell",
        -9.878277778625488
      ],
      [
        "▁search",
        -9.878362655639648
      ],
      [
        "▁described",
        -9.878687858581545
      ],
      [
        "at",
        -9.87890338897705
      ],
      [
        "▁focus",
        -9.880086898803713
      ],
      [
        "▁Get",
        -9.88014316558838
      ],
      [
        "▁require",
        -9.880270957946776
      ],
      [
        "▁Does",
        -9.880805015563965
      ],
      [
        "▁multiple",
        -9.881036758422852
      ],
      [
        "▁asking",
        -9.881158828735352
      ],
      [
        "▁brother",
        -9.881218910217283
      ],
      [
        "▁il",
        -9.881865501403809
      ],
      [
        "io",
        -9.882079124450684
      ],
      [
        "Y",
        -9.882401466369627
      ],
      [
        "▁watching",
        -9.88274097442627
      ],
      [
        "▁San",
        -9.882976531982422
      ],
      [
        "▁election",
        -9.883138656616213
      ],
      [
        "▁knows",
        -9.884904861450195
      ],
      [
        "▁claim",
        -9.885072708129885
      ],
      [
        "old",
        -9.886885643005373
      ],
      [
        "os",
        -9.88861846923828
      ],
      [
        "▁\r",
        -9.888853073120115
      ],
      [
        "script",
        -9.888858795166016
      ],
      [
        "▁addition",
        -9.8889741897583
      ],
      [
        "▁published",
        -9.890362739562988
      ],
      [
        "▁user",
        -9.890462875366213
      ],
      [
        "▁Indian",
        -9.890578269958496
      ],
      [
        "▁blue",
        -9.891112327575684
      ],
      [
        "▁song",
        -9.89185619354248
      ],
      [
        "▁Co",
        -9.891894340515137
      ],
      [
        "▁Court",
        -9.89449977874756
      ],
      [
        "▁Canada",
        -9.894569396972656
      ],
      [
        "▁School",
        -9.895438194274902
      ],
      [
        "▁Only",
        -9.89550495147705
      ],
      [
        "▁income",
        -9.895777702331545
      ],
      [
        "▁moving",
        -9.896339416503906
      ],
      [
        "▁understanding",
        -9.896953582763672
      ],
      [
        "▁Although",
        -9.897490501403809
      ],
      [
        "▁spend",
        -9.900349617004396
      ],
      [
        "▁eye",
        -9.901506423950195
      ],
      [
        "▁co",
        -9.902183532714844
      ],
      [
        "▁basic",
        -9.903545379638672
      ],
      [
        "▁structure",
        -9.906970977783203
      ],
      [
        "▁international",
        -9.90760612487793
      ],
      [
        "▁County",
        -9.908036231994627
      ],
      [
        "http",
        -9.90865993499756
      ],
      [
        "▁pro",
        -9.909318923950195
      ],
      [
        "▁January",
        -9.909717559814451
      ],
      [
        "▁OP",
        -9.91024684906006
      ],
      [
        "▁error",
        -9.910669326782228
      ],
      [
        "▁Have",
        -9.911681175231934
      ],
      [
        "▁followed",
        -9.912458419799805
      ],
      [
        "▁computer",
        -9.912817001342772
      ],
      [
        "▁Be",
        -9.915308952331545
      ],
      [
        "▁campaign",
        -9.915526390075684
      ],
      [
        "▁France",
        -9.915794372558594
      ],
      [
        "▁management",
        -9.915794372558594
      ],
      [
        "▁effort",
        -9.91590404510498
      ],
      [
        "@",
        -9.916540145874023
      ],
      [
        "▁stupid",
        -9.91663932800293
      ],
      [
        "▁learning",
        -9.917071342468262
      ],
      [
        "▁products",
        -9.919208526611328
      ],
      [
        "▁church",
        -9.919580459594728
      ],
      [
        "▁majority",
        -9.920496940612791
      ],
      [
        "▁success",
        -9.920621871948242
      ],
      [
        "▁static",
        -9.921483039855955
      ],
      [
        "▁European",
        -9.921714782714844
      ],
      [
        "に",
        -9.922719955444336
      ],
      [
        "($",
        -9.922933578491213
      ],
      [
        "▁reference",
        -9.925019264221191
      ],
      [
        "int",
        -9.92527961730957
      ],
      [
        "▁appear",
        -9.925761222839355
      ],
      [
        "▁Ang",
        -9.925917625427246
      ],
      [
        "by",
        -9.926109313964844
      ],
      [
        "▁boy",
        -9.926657676696776
      ],
      [
        "▁items",
        -9.926772117614746
      ],
      [
        "▁с",
        -9.926895141601562
      ],
      [
        "▁drop",
        -9.92729377746582
      ],
      [
        "ie",
        -9.927435874938965
      ],
      [
        "▁released",
        -9.927477836608888
      ],
      [
        "No",
        -9.928529739379885
      ],
      [
        "▁treatment",
        -9.928942680358888
      ],
      [
        "▁address",
        -9.929288864135742
      ],
      [
        "U",
        -9.929524421691896
      ],
      [
        "▁stage",
        -9.93028736114502
      ],
      [
        "（",
        -9.931112289428713
      ],
      [
        "▁Y",
        -9.931286811828612
      ],
      [
        "▁foreign",
        -9.931925773620604
      ],
      [
        "▁string",
        -9.93265438079834
      ],
      [
        "▁Where",
        -9.932971954345703
      ],
      [
        "▁particularly",
        -9.933053970336914
      ],
      [
        "//",
        -9.934120178222656
      ],
      [
        "▁explain",
        -9.934510231018066
      ],
      [
        "▁significant",
        -9.934530258178713
      ],
      [
        "は",
        -9.934956550598145
      ],
      [
        "▁app",
        -9.935041427612305
      ],
      [
        "▁official",
        -9.935215950012209
      ],
      [
        "▁null",
        -9.93540859222412
      ],
      [
        "▁plus",
        -9.93552017211914
      ],
      [
        "el",
        -9.935542106628418
      ],
      [
        "▁details",
        -9.935718536376951
      ],
      [
        "string",
        -9.93630313873291
      ],
      [
        "▁limited",
        -9.936378479003906
      ],
      [
        "▁goal",
        -9.936569213867188
      ],
      [
        "In",
        -9.937368392944336
      ],
      [
        "▁target",
        -9.937989234924316
      ],
      [
        "▁summer",
        -9.938393592834473
      ],
      [
        "▁born",
        -9.93885326385498
      ],
      [
        "▁supposed",
        -9.938899040222168
      ],
      [
        "▁ten",
        -9.939071655273438
      ],
      [
        "te",
        -9.9401273727417
      ],
      [
        "▁options",
        -9.941954612731934
      ],
      [
        "▁region",
        -9.942164421081545
      ],
      [
        "em",
        -9.942569732666016
      ],
      [
        "▁mostly",
        -9.942852973937988
      ],
      [
        "▁easier",
        -9.942917823791504
      ],
      [
        "▁meaning",
        -9.943310737609863
      ],
      [
        "ar",
        -9.943428993225098
      ],
      [
        "▁scene",
        -9.94421672821045
      ],
      [
        "▁baby",
        -9.944719314575195
      ],
      [
        "▁degree",
        -9.944910049438477
      ],
      [
        "ers",
        -9.94741916656494
      ],
      [
        "▁otherwise",
        -9.94895362854004
      ],
      [
        "▁continued",
        -9.949403762817385
      ],
      [
        "new",
        -9.95004177093506
      ],
      [
        "▁Le",
        -9.95287036895752
      ],
      [
        "▁screen",
        -9.953067779541016
      ],
      [
        "▁levels",
        -9.953414916992188
      ],
      [
        "▁vs",
        -9.957311630249023
      ],
      [
        "▁map",
        -9.957345008850098
      ],
      [
        "not",
        -9.957369804382324
      ],
      [
        "Type",
        -9.957557678222656
      ],
      [
        "▁career",
        -9.958606719970703
      ],
      [
        "▁Paul",
        -9.959832191467283
      ],
      [
        "▁walk",
        -9.959890365600586
      ],
      [
        "▁reality",
        -9.96297550201416
      ],
      [
        "▁choose",
        -9.962980270385742
      ],
      [
        "▁Two",
        -9.963315963745115
      ],
      [
        "▁notice",
        -9.963993072509766
      ],
      [
        "What",
        -9.964645385742188
      ],
      [
        "▁stock",
        -9.964743614196776
      ],
      [
        "▁software",
        -9.96543312072754
      ],
      [
        "var",
        -9.965550422668455
      ],
      [
        "▁▁▁▁▁▁▁",
        -9.96559715270996
      ],
      [
        "▁surface",
        -9.971056938171388
      ],
      [
        "▁direction",
        -9.971269607543944
      ],
      [
        "▁kid",
        -9.97156810760498
      ],
      [
        "▁solution",
        -9.971601486206056
      ],
      [
        "▁California",
        -9.972522735595703
      ],
      [
        "▁Another",
        -9.972628593444824
      ],
      [
        "▁Did",
        -9.973118782043455
      ],
      [
        "\");",
        -9.973410606384276
      ],
      [
        "▁visit",
        -9.97409439086914
      ],
      [
        "▁religious",
        -9.974160194396973
      ],
      [
        "▁skin",
        -9.975262641906738
      ],
      [
        "▁influence",
        -9.975488662719728
      ],
      [
        "▁fully",
        -9.97670078277588
      ],
      [
        "▁waiting",
        -9.976932525634766
      ],
      [
        "un",
        -9.976959228515623
      ],
      [
        "▁exist",
        -9.977705955505373
      ],
      [
        "▁student",
        -9.977879524230955
      ],
      [
        "nd",
        -9.97819709777832
      ],
      [
        "▁fear",
        -9.978336334228516
      ],
      [
        "▁bed",
        -9.978663444519045
      ],
      [
        "▁License",
        -9.979607582092283
      ],
      [
        "self",
        -9.980703353881836
      ],
      [
        "»",
        -9.981060028076172
      ],
      [
        "▁Department",
        -9.981210708618164
      ],
      [
        "،",
        -9.982536315917969
      ],
      [
        "▁Go",
        -9.984148025512695
      ],
      [
        "▁por",
        -9.984432220458984
      ],
      [
        "▁para",
        -9.985967636108398
      ],
      [
        "▁developed",
        -9.987411499023438
      ],
      [
        "▁avoid",
        -9.989155769348145
      ],
      [
        "▁los",
        -9.989179611206056
      ],
      [
        "▁David",
        -9.989323616027832
      ],
      [
        "▁Edit",
        -9.989439964294434
      ],
      [
        "▁anyway",
        -9.990478515625
      ],
      [
        "▁positive",
        -9.99065399169922
      ],
      [
        "▁condition",
        -9.99188232421875
      ],
      [
        "▁attempt",
        -9.9918851852417
      ],
      [
        "js",
        -9.992528915405272
      ],
      [
        "▁bar",
        -9.99254035949707
      ],
      [
        "▁compared",
        -9.99657917022705
      ],
      [
        "▁useful",
        -9.996641159057615
      ],
      [
        "{",
        -9.996966361999512
      ],
      [
        "like",
        -9.997138023376465
      ],
      [
        "▁throw",
        -9.998783111572266
      ],
      [
        "▁East",
        -9.999110221862791
      ],
      [
        "▁application",
        -9.999185562133787
      ],
      [
        "▁becomes",
        -10.000133514404297
      ],
      [
        "▁regular",
        -10.000750541687012
      ],
      [
        "▁activity",
        -10.001848220825195
      ],
      [
        "▁totally",
        -10.001933097839355
      ],
      [
        "▁capital",
        -10.003081321716309
      ],
      [
        "▁active",
        -10.003962516784668
      ],
      [
        "▁types",
        -10.00404167175293
      ],
      [
        "▁September",
        -10.005035400390623
      ],
      [
        "▁financial",
        -10.005438804626465
      ],
      [
        "▁copy",
        -10.005462646484377
      ],
      [
        "▁staff",
        -10.006089210510254
      ],
      [
        "all",
        -10.006233215332031
      ],
      [
        "▁Jesus",
        -10.006511688232422
      ],
      [
        "▁husband",
        -10.006622314453123
      ],
      [
        "▁una",
        -10.008310317993164
      ],
      [
        "▁forces",
        -10.00892162322998
      ],
      [
        "param",
        -10.009296417236328
      ],
      [
        "▁basis",
        -10.009392738342283
      ],
      [
        "▁medical",
        -10.009437561035156
      ],
      [
        "▁learned",
        -10.009611129760742
      ],
      [
        "▁Government",
        -10.010126113891602
      ],
      [
        "▁Many",
        -10.010289192199709
      ],
      [
        "▁luck",
        -10.010562896728516
      ],
      [
        "▁earth",
        -10.01078987121582
      ],
      [
        "▁features",
        -10.011086463928224
      ],
      [
        "This",
        -10.011868476867676
      ],
      [
        "ia",
        -10.01405429840088
      ],
      [
        "▁laws",
        -10.014145851135254
      ],
      [
        "é",
        -10.014751434326172
      ],
      [
        "）",
        -10.015419006347656
      ],
      [
        "▁throughout",
        -10.016454696655272
      ],
      [
        "▁heavy",
        -10.016783714294434
      ],
      [
        "▁November",
        -10.018857955932615
      ],
      [
        "▁TV",
        -10.018900871276855
      ],
      [
        "▁October",
        -10.019655227661133
      ],
      [
        "▁cold",
        -10.019659042358398
      ],
      [
        "▁girls",
        -10.021234512329102
      ],
      [
        "▁George",
        -10.021775245666504
      ],
      [
        "▁August",
        -10.023664474487305
      ],
      [
        "▁window",
        -10.023956298828123
      ],
      [
        "▁/**",
        -10.024994850158691
      ],
      [
        "do",
        -10.025702476501465
      ],
      [
        "▁resources",
        -10.02761173248291
      ],
      [
        "▁god",
        -10.027761459350586
      ],
      [
        "▁green",
        -10.027896881103516
      ],
      [
        "▁floor",
        -10.031100273132324
      ],
      [
        "▁review",
        -10.031590461730955
      ],
      [
        "▁status",
        -10.032922744750977
      ],
      [
        "▁costs",
        -10.033554077148438
      ],
      [
        "▁older",
        -10.034430503845217
      ],
      [
        "▁stories",
        -10.034538269042969
      ],
      [
        "▁posted",
        -10.034854888916016
      ],
      [
        "▁Other",
        -10.03525447845459
      ],
      [
        "▁miles",
        -10.036267280578612
      ],
      [
        "▁ang",
        -10.036723136901855
      ],
      [
        "▁Will",
        -10.03675365447998
      ],
      [
        "▁par",
        -10.036787033081056
      ],
      [
        "▁increased",
        -10.037700653076172
      ],
      [
        "▁length",
        -10.04045295715332
      ],
      [
        "▁IN",
        -10.040987968444824
      ],
      [
        "▁additional",
        -10.041566848754885
      ],
      [
        "▁je",
        -10.04160213470459
      ],
      [
        "▁sleep",
        -10.041858673095703
      ],
      [
        "!!",
        -10.044466972351074
      ],
      [
        "▁est",
        -10.044806480407717
      ],
      [
        "▁center",
        -10.045016288757324
      ],
      [
        "▁workers",
        -10.045462608337402
      ],
      [
        "▁carry",
        -10.045857429504396
      ],
      [
        "▁reach",
        -10.046475410461426
      ],
      [
        "▁mode",
        -10.046805381774902
      ],
      [
        "▁stopped",
        -10.047054290771484
      ],
      [
        "le",
        -10.047689437866213
      ],
      [
        "▁via",
        -10.047913551330566
      ],
      [
        "▁December",
        -10.04949188232422
      ],
      [
        "▁ball",
        -10.05007266998291
      ],
      [
        "▁extremely",
        -10.05023956298828
      ],
      [
        "▁imagine",
        -10.050806999206545
      ],
      [
        "▁Christian",
        -10.05306625366211
      ],
      [
        "watch",
        -10.053659439086914
      ],
      [
        "▁highly",
        -10.054180145263672
      ],
      [
        "\")",
        -10.055554389953612
      ],
      [
        "▁teams",
        -10.0556058883667
      ],
      [
        "able",
        -10.056109428405762
      ],
      [
        "▁opportunity",
        -10.056180953979492
      ],
      [
        "▁technology",
        -10.056939125061035
      ],
      [
        "▁request",
        -10.05723476409912
      ],
      [
        "▁hundred",
        -10.05736255645752
      ],
      [
        "▁thank",
        -10.058692932128906
      ],
      [
        "▁instance",
        -10.05899429321289
      ],
      [
        "▁block",
        -10.059093475341797
      ],
      [
        "▁ended",
        -10.059284210205078
      ],
      [
        "▁distance",
        -10.061899185180664
      ],
      [
        "▁begin",
        -10.062783241271973
      ],
      [
        "▁female",
        -10.064553260803224
      ],
      [
        "▁established",
        -10.0652494430542
      ],
      [
        "▁sea",
        -10.065893173217772
      ],
      [
        "▁Chinese",
        -10.065923690795898
      ],
      [
        "▁TO",
        -10.067049026489258
      ],
      [
        "▁environment",
        -10.06818962097168
      ],
      [
        "▁reached",
        -10.071775436401367
      ],
      [
        "▁beat",
        -10.072033882141112
      ],
      [
        "▁battle",
        -10.072044372558594
      ],
      [
        "▁wide",
        -10.07207202911377
      ],
      [
        "▁unit",
        -10.072261810302734
      ],
      [
        "▁names",
        -10.07439422607422
      ],
      [
        "▁weird",
        -10.074729919433594
      ],
      [
        "which",
        -10.075605392456056
      ],
      [
        "▁funny",
        -10.077357292175291
      ],
      [
        "▁Thus",
        -10.078078269958496
      ],
      [
        "▁daily",
        -10.078970909118652
      ],
      [
        "▁Their",
        -10.07912254333496
      ],
      [
        "▁behavior",
        -10.08004379272461
      ],
      [
        "が",
        -10.08005142211914
      ],
      [
        "▁species",
        -10.080188751220703
      ],
      [
        "▁lived",
        -10.080788612365724
      ],
      [
        "Name",
        -10.08157444000244
      ],
      [
        "ness",
        -10.081790924072266
      ],
      [
        "▁path",
        -10.08194351196289
      ],
      [
        "▁const",
        -10.08209991455078
      ],
      [
        "▁male",
        -10.082159042358398
      ],
      [
        "▁accept",
        -10.083020210266112
      ],
      [
        "▁crazy",
        -10.08335781097412
      ],
      [
        "▁sold",
        -10.083698272705078
      ],
      [
        "▁appears",
        -10.08413791656494
      ],
      [
        "▁realize",
        -10.08433437347412
      ],
      [
        "▁larger",
        -10.08599853515625
      ],
      [
        "redd",
        -10.08615493774414
      ],
      [
        "▁effective",
        -10.086231231689451
      ],
      [
        "▁William",
        -10.086465835571287
      ],
      [
        "▁quick",
        -10.08675765991211
      ],
      [
        "▁forms",
        -10.086843490600586
      ],
      [
        "▁leaving",
        -10.089762687683104
      ],
      [
        "▁mention",
        -10.090110778808594
      ],
      [
        "▁cards",
        -10.090222358703612
      ],
      [
        "▁memory",
        -10.090262413024902
      ],
      [
        "▁Those",
        -10.09031581878662
      ],
      [
        "▁د",
        -10.090495109558104
      ],
      [
        "▁schools",
        -10.090860366821287
      ],
      [
        "▁telling",
        -10.090917587280272
      ],
      [
        "▁worst",
        -10.091838836669922
      ],
      [
        "▁network",
        -10.092408180236816
      ],
      [
        "▁sit",
        -10.093260765075684
      ],
      [
        "youtube",
        -10.093859672546388
      ],
      [
        "▁update",
        -10.094194412231444
      ],
      [
        "▁International",
        -10.095102310180664
      ],
      [
        "▁indeed",
        -10.095212936401367
      ],
      [
        "▁studies",
        -10.09577178955078
      ],
      [
        "▁ship",
        -10.095789909362791
      ],
      [
        "link",
        -10.095815658569336
      ],
      [
        "▁Congress",
        -10.0960054397583
      ],
      [
        "▁activities",
        -10.097978591918944
      ],
      [
        "▁bottom",
        -10.098093032836914
      ],
      [
        "▁nation",
        -10.099279403686523
      ],
      [
        "one",
        -10.099409103393556
      ],
      [
        "value",
        -10.099925994873049
      ],
      [
        "▁El",
        -10.100199699401855
      ],
      [
        "▁showed",
        -10.10090446472168
      ],
      [
        "▁Q",
        -10.100953102111816
      ],
      [
        "▁apply",
        -10.101317405700684
      ],
      [
        "▁Church",
        -10.101594924926758
      ],
      [
        "▁trust",
        -10.10290241241455
      ],
      [
        "▁entirely",
        -10.10322380065918
      ],
      [
        "▁credit",
        -10.10343074798584
      ],
      [
        "▁shouldn",
        -10.10402774810791
      ],
      [
        "▁fans",
        -10.104289054870604
      ],
      [
        "▁eventually",
        -10.104907989501951
      ],
      [
        "▁Best",
        -10.105545043945312
      ],
      [
        "▁daughter",
        -10.10683822631836
      ],
      [
        "▁receive",
        -10.107084274291992
      ],
      [
        "▁anymore",
        -10.107548713684082
      ],
      [
        "▁speech",
        -10.108229637145996
      ],
      [
        "▁equal",
        -10.108624458312988
      ],
      [
        "▁mass",
        -10.108694076538086
      ],
      [
        "▁track",
        -10.109907150268556
      ],
      [
        "▁k",
        -10.110254287719728
      ],
      [
        "▁Z",
        -10.110685348510742
      ],
      [
        "▁impact",
        -10.110737800598145
      ],
      [
        "▁willing",
        -10.111546516418455
      ],
      [
        "▁none",
        -10.111737251281738
      ],
      [
        "▁herself",
        -10.112226486206056
      ],
      [
        "see",
        -10.112836837768556
      ],
      [
        "▁feels",
        -10.112860679626465
      ],
      [
        "▁uses",
        -10.113011360168455
      ],
      [
        "na",
        -10.113655090332031
      ],
      [
        "▁clean",
        -10.114113807678224
      ],
      [
        "^",
        -10.11509132385254
      ],
      [
        "я",
        -10.11590576171875
      ],
      [
        "▁calling",
        -10.117154121398926
      ],
      [
        "▁authority",
        -10.118078231811523
      ],
      [
        "▁placed",
        -10.118109703063965
      ],
      [
        "▁spot",
        -10.11814785003662
      ],
      [
        "▁wonder",
        -10.119219779968262
      ],
      [
        "▁proper",
        -10.120314598083496
      ],
      [
        "▁religion",
        -10.120597839355469
      ],
      [
        "▁Street",
        -10.12067699432373
      ],
      [
        "▁arms",
        -10.121108055114746
      ],
      [
        "▁obviously",
        -10.121466636657717
      ],
      [
        "▁assume",
        -10.122364044189451
      ],
      [
        "▁ran",
        -10.122901916503906
      ],
      [
        "▁press",
        -10.123445510864258
      ],
      [
        "▁designed",
        -10.123723030090332
      ],
      [
        "▁named",
        -10.124224662780762
      ],
      [
        "▁не",
        -10.124316215515137
      ],
      [
        "▁organization",
        -10.12497901916504
      ],
      [
        "▁plans",
        -10.125065803527832
      ],
      [
        "▁strength",
        -10.125481605529783
      ],
      [
        "▁Me",
        -10.126409530639648
      ],
      [
        "▁users",
        -10.12698745727539
      ],
      [
        "▁ahead",
        -10.127010345458984
      ],
      [
        "▁hurt",
        -10.127747535705566
      ],
      [
        "▁Russia",
        -10.12889289855957
      ],
      [
        "▁slow",
        -10.128902435302734
      ],
      [
        "▁gas",
        -10.129196166992188
      ],
      [
        "He",
        -10.129891395568848
      ],
      [
        "▁cross",
        -10.129942893981934
      ],
      [
        "To",
        -10.131147384643556
      ],
      [
        "out",
        -10.132001876831056
      ],
      [
        "▁economy",
        -10.1329345703125
      ],
      [
        "co",
        -10.13359832763672
      ],
      [
        "▁suggest",
        -10.13443660736084
      ],
      [
        "▁helped",
        -10.135272026062012
      ],
      [
        "▁separate",
        -10.13534164428711
      ],
      [
        "st",
        -10.13764762878418
      ],
      [
        "▁returned",
        -10.138781547546388
      ],
      [
        "▁enemy",
        -10.139606475830078
      ],
      [
        "▁carried",
        -10.140000343322754
      ],
      [
        "▁classes",
        -10.140081405639648
      ],
      [
        "▁Every",
        -10.140583992004396
      ],
      [
        "▁location",
        -10.141780853271484
      ],
      [
        "▁Red",
        -10.141937255859377
      ],
      [
        "▁author",
        -10.143366813659668
      ],
      [
        "▁street",
        -10.145170211791992
      ],
      [
        "▁complex",
        -10.145474433898926
      ],
      [
        "▁broken",
        -10.145559310913086
      ],
      [
        "▁connection",
        -10.145575523376465
      ],
      [
        "▁caused",
        -10.146584510803224
      ],
      [
        "▁item",
        -10.14658546447754
      ],
      [
        "▁seriously",
        -10.146756172180176
      ],
      [
        "▁powerful",
        -10.146912574768066
      ],
      [
        "▁peace",
        -10.147086143493652
      ],
      [
        "))",
        -10.147869110107422
      ],
      [
        "▁till",
        -10.148332595825195
      ],
      [
        "▁website",
        -10.149006843566896
      ],
      [
        "▁appeared",
        -10.14999008178711
      ],
      [
        "▁showing",
        -10.150309562683104
      ],
      [
        "▁remain",
        -10.151288986206056
      ],
      [
        "▁aware",
        -10.15145778656006
      ],
      [
        "▁growing",
        -10.15201187133789
      ],
      [
        "\"></",
        -10.15208625793457
      ],
      [
        "▁Once",
        -10.15272617340088
      ],
      [
        "▁actions",
        -10.153554916381836
      ],
      [
        " ",
        -10.153668403625488
      ],
      [
        "▁Figure",
        -10.153874397277832
      ],
      [
        "▁internet",
        -10.154241561889648
      ],
      [
        "▁fix",
        -10.154518127441406
      ],
      [
        "▁agreed",
        -10.155574798583984
      ],
      [
        "▁su",
        -10.155710220336914
      ],
      [
        "▁concerned",
        -10.155980110168455
      ],
      [
        "▁es",
        -10.156135559082031
      ],
      [
        "▁moderators",
        -10.156559944152832
      ],
      [
        "▁count",
        -10.157672882080078
      ],
      [
        "▁missing",
        -10.157675743103027
      ],
      [
        "▁married",
        -10.157804489135742
      ],
      [
        "ne",
        -10.158071517944336
      ],
      [
        "▁brain",
        -10.158113479614258
      ],
      [
        "▁recommend",
        -10.160984992980955
      ],
      [
        "▁professional",
        -10.161218643188477
      ],
      [
        "▁leading",
        -10.16122055053711
      ],
      [
        "▁Google",
        -10.161970138549805
      ],
      [
        "▁ex",
        -10.162999153137209
      ],
      [
        "▁federal",
        -10.165446281433104
      ],
      [
        "▁Both",
        -10.165610313415527
      ],
      [
        "▁opened",
        -10.165741920471191
      ],
      [
        "▁forced",
        -10.165895462036133
      ],
      [
        "▁High",
        -10.165903091430664
      ],
      [
        "▁concept",
        -10.16597843170166
      ],
      [
        "▁bank",
        -10.166061401367188
      ],
      [
        "▁leader",
        -10.166330337524414
      ],
      [
        "▁negative",
        -10.167661666870115
      ],
      [
        "▁loved",
        -10.16823673248291
      ],
      [
        "▁impossible",
        -10.169011116027832
      ],
      [
        "▁machine",
        -10.17049503326416
      ],
      [
        "▁cent",
        -10.170523643493652
      ],
      [
        "▁successful",
        -10.172123908996582
      ],
      [
        "▁tree",
        -10.172980308532717
      ],
      [
        "▁holding",
        -10.173691749572754
      ],
      [
        "▁Mrs",
        -10.174139976501465
      ],
      [
        "based",
        -10.175655364990234
      ],
      [
        "▁setting",
        -10.175724983215332
      ],
      [
        "▁closed",
        -10.176088333129885
      ],
      [
        "▁contract",
        -10.17801284790039
      ],
      [
        "▁produce",
        -10.178131103515623
      ],
      [
        "▁club",
        -10.17851734161377
      ],
      [
        "▁central",
        -10.178985595703123
      ],
      [
        "▁raised",
        -10.179036140441896
      ],
      [
        "net",
        -10.179092407226562
      ],
      [
        "he",
        -10.179803848266602
      ],
      [
        "▁reddit",
        -10.18144416809082
      ],
      [
        "▁sources",
        -10.182268142700195
      ],
      [
        "▁slightly",
        -10.182924270629885
      ],
      [
        "▁failed",
        -10.18311882019043
      ],
      [
        "▁▁▁▁▁▁▁▁▁▁",
        -10.183886528015137
      ],
      [
        "▁obvious",
        -10.18523120880127
      ],
      [
        "▁join",
        -10.18541145324707
      ],
      [
        "▁у",
        -10.18563461303711
      ],
      [
        "▁dude",
        -10.185937881469728
      ],
      [
        "▁UK",
        -10.185946464538574
      ],
      [
        "Z",
        -10.186243057250977
      ],
      [
        "▁According",
        -10.186487197875977
      ],
      [
        "▁associated",
        -10.188653945922852
      ],
      [
        "▁mid",
        -10.188750267028809
      ],
      [
        "▁Russian",
        -10.190332412719728
      ],
      [
        "▁server",
        -10.191667556762695
      ],
      [
        "▁army",
        -10.194165229797363
      ],
      [
        "▁Christ",
        -10.194233894348145
      ],
      [
        "ы",
        -10.194663047790527
      ],
      [
        "rd",
        -10.195563316345217
      ],
      [
        "▁primary",
        -10.19616413116455
      ],
      [
        "▁collection",
        -10.19650650024414
      ],
      [
        "▁despite",
        -10.19696044921875
      ],
      [
        "▁putting",
        -10.197134971618652
      ],
      [
        "▁sexual",
        -10.19752597808838
      ],
      [
        "▁trouble",
        -10.19808864593506
      ],
      [
        "▁و",
        -10.198506355285645
      ],
      [
        "▁district",
        -10.19851303100586
      ],
      [
        "If",
        -10.199078559875488
      ],
      [
        "▁overall",
        -10.199248313903809
      ],
      [
        "▁faith",
        -10.199281692504885
      ],
      [
        "▁unique",
        -10.199444770812988
      ],
      [
        "line",
        -10.200261116027832
      ],
      [
        "am",
        -10.201703071594238
      ],
      [
        "▁Robert",
        -10.202054023742676
      ],
      [
        "▁fell",
        -10.202481269836426
      ],
      [
        "▁caught",
        -10.202890396118164
      ],
      [
        "▁forget",
        -10.203981399536133
      ],
      [
        "▁finished",
        -10.204056739807127
      ],
      [
        "▁fixed",
        -10.20460033416748
      ],
      [
        "▁mental",
        -10.204981803894045
      ],
      [
        "▁appropriate",
        -10.205114364624023
      ],
      [
        "▁chapter",
        -10.205644607543944
      ],
      [
        "▁posts",
        -10.207002639770508
      ],
      [
        "▁progress",
        -10.207385063171388
      ],
      [
        "▁random",
        -10.207837104797363
      ],
      [
        "▁Still",
        -10.208999633789062
      ],
      [
        "▁background",
        -10.209188461303713
      ],
      [
        "▁smaller",
        -10.209339141845703
      ],
      [
        ";\r",
        -10.209611892700195
      ],
      [
        "▁advantage",
        -10.21065616607666
      ],
      [
        "▁catch",
        -10.21087646484375
      ],
      [
        "▁manner",
        -10.211050987243652
      ],
      [
        "▁Japanese",
        -10.212157249450684
      ],
      [
        "da",
        -10.21263599395752
      ],
      [
        "▁finding",
        -10.212738990783691
      ],
      [
        "▁marriage",
        -10.212934494018556
      ],
      [
        "▁parties",
        -10.213168144226074
      ],
      [
        "▁Sunday",
        -10.213266372680664
      ],
      [
        "▁travel",
        -10.21433162689209
      ],
      [
        "▁pull",
        -10.214529037475586
      ],
      [
        "▁officials",
        -10.21469497680664
      ],
      [
        "▁sale",
        -10.215333938598633
      ],
      [
        "▁def",
        -10.215633392333984
      ],
      [
        "].",
        -10.217219352722168
      ],
      [
        "▁Friday",
        -10.218297958374023
      ],
      [
        "▁är",
        -10.218465805053713
      ],
      [
        "ه",
        -10.218827247619627
      ],
      [
        "▁seven",
        -10.219035148620604
      ],
      [
        "▁demand",
        -10.22055721282959
      ],
      [
        "▁Japan",
        -10.22075653076172
      ],
      [
        "▁prices",
        -10.22079086303711
      ],
      [
        "top",
        -10.220815658569336
      ],
      [
        "▁violence",
        -10.221494674682615
      ],
      [
        "▁damn",
        -10.22154140472412
      ],
      [
        "▁er",
        -10.22211742401123
      ],
      [
        "▁king",
        -10.22240161895752
      ],
      [
        "▁episode",
        -10.223508834838867
      ],
      [
        "▁scale",
        -10.224309921264648
      ],
      [
        "▁System",
        -10.224759101867676
      ],
      [
        "▁honestly",
        -10.225160598754885
      ],
      [
        "▁During",
        -10.22520923614502
      ],
      [
        "▁methods",
        -10.225789070129396
      ],
      [
        "▁defense",
        -10.225842475891112
      ],
      [
        "▁conversation",
        -10.226448059082031
      ],
      [
        "est",
        -10.227073669433594
      ],
      [
        "▁sitting",
        -10.227782249450684
      ],
      [
        "▁officer",
        -10.22792625427246
      ],
      [
        "▁prevent",
        -10.228014945983888
      ],
      [
        "▁remove",
        -10.22829818725586
      ],
      [
        "▁dans",
        -10.229528427124023
      ],
      [
        "▁heat",
        -10.229823112487791
      ],
      [
        "▁по",
        -10.23011302947998
      ],
      [
        "▁elements",
        -10.230326652526855
      ],
      [
        "▁grow",
        -10.230425834655762
      ],
      [
        "▁terrible",
        -10.230463027954102
      ],
      [
        "▁​",
        -10.230591773986816
      ],
      [
        "▁device",
        -10.230640411376951
      ],
      [
        "▁covered",
        -10.230812072753906
      ],
      [
        "▁animals",
        -10.23133945465088
      ],
      [
        "▁Hey",
        -10.231696128845217
      ],
      [
        "Id",
        -10.232208251953123
      ],
      [
        "▁includes",
        -10.23267650604248
      ],
      [
        "▁planning",
        -10.23292350769043
      ],
      [
        "▁plant",
        -10.23293113708496
      ],
      [
        "▁calls",
        -10.233327865600586
      ],
      [
        "▁si",
        -10.233778953552246
      ],
      [
        "▁Thomas",
        -10.23385524749756
      ],
      [
        "▁skills",
        -10.23398780822754
      ],
      [
        "▁supply",
        -10.234564781188965
      ],
      [
        "▁Council",
        -10.234604835510254
      ],
      [
        "▁band",
        -10.237250328063965
      ],
      [
        "▁remains",
        -10.237485885620115
      ],
      [
        "▁Would",
        -10.237534523010254
      ],
      [
        "▁wear",
        -10.237616539001465
      ],
      [
        "▁jobs",
        -10.23794651031494
      ],
      [
        "ta",
        -10.238399505615234
      ],
      [
        "▁freedom",
        -10.238450050354004
      ],
      [
        "▁north",
        -10.238798141479492
      ],
      [
        "의",
        -10.239649772644045
      ],
      [
        "・",
        -10.239789962768556
      ],
      [
        "▁drink",
        -10.239995002746582
      ],
      [
        "▁org",
        -10.241039276123049
      ],
      [
        "▁Union",
        -10.241167068481444
      ],
      [
        "▁sad",
        -10.241793632507324
      ],
      [
        "▁mouth",
        -10.242257118225098
      ],
      [
        "▁benefit",
        -10.242676734924316
      ],
      [
        "▁presence",
        -10.243441581726074
      ],
      [
        "day",
        -10.244378089904783
      ],
      [
        "▁fighting",
        -10.24465560913086
      ],
      [
        "but",
        -10.244726181030272
      ],
      [
        "▁officers",
        -10.24476432800293
      ],
      [
        "▁February",
        -10.24509048461914
      ],
      [
        "▁decide",
        -10.245180130004885
      ],
      [
        "▁station",
        -10.245689392089844
      ],
      [
        "▁politics",
        -10.245973587036133
      ],
      [
        "▁pour",
        -10.24653148651123
      ],
      [
        "▁reports",
        -10.247285842895508
      ],
      [
        "▁personally",
        -10.247570037841797
      ],
      [
        "▁handle",
        -10.251349449157717
      ],
      [
        "▁expensive",
        -10.251779556274414
      ],
      [
        "▁solid",
        -10.252384185791016
      ],
      [
        "▁stood",
        -10.252389907836914
      ],
      [
        "▁sun",
        -10.252592086791992
      ],
      [
        "▁links",
        -10.253985404968262
      ],
      [
        "▁safety",
        -10.254881858825684
      ],
      [
        "▁administration",
        -10.254929542541504
      ],
      [
        "▁onto",
        -10.255130767822266
      ],
      [
        "▁helps",
        -10.25687313079834
      ],
      [
        "▁History",
        -10.257615089416504
      ],
      [
        "▁weapons",
        -10.25784683227539
      ],
      [
        "▁IS",
        -10.258686065673828
      ],
      [
        "▁standing",
        -10.25920867919922
      ],
      [
        "▁ok",
        -10.259748458862305
      ],
      [
        "▁touch",
        -10.260049819946287
      ],
      [
        "▁improve",
        -10.260445594787598
      ],
      [
        "▁joke",
        -10.261313438415527
      ],
      [
        "▁star",
        -10.262131690979004
      ],
      [
        "▁announced",
        -10.26332664489746
      ],
      [
        "▁Time",
        -10.26340675354004
      ],
      [
        "▁cell",
        -10.263456344604492
      ],
      [
        "▁volume",
        -10.263583183288574
      ],
      [
        "▁balance",
        -10.263955116271973
      ],
      [
        "▁z",
        -10.264288902282717
      ],
      [
        "▁gain",
        -10.265063285827637
      ],
      [
        "public",
        -10.265558242797852
      ],
      [
        "▁latter",
        -10.267041206359863
      ],
      [
        "▁crime",
        -10.267343521118164
      ],
      [
        "▁Party",
        -10.267355918884276
      ],
      [
        "▁truly",
        -10.26830768585205
      ],
      [
        "▁offered",
        -10.268685340881348
      ],
      [
        "▁feature",
        -10.268966674804688
      ],
      [
        "▁Life",
        -10.2691068649292
      ],
      [
        "▁stated",
        -10.26954460144043
      ],
      [
        "▁global",
        -10.270142555236816
      ],
      [
        "▁individuals",
        -10.27026081085205
      ],
      [
        "include",
        -10.270323753356934
      ],
      [
        "▁g",
        -10.270811080932615
      ],
      [
        "▁claims",
        -10.271650314331056
      ],
      [
        "▁responsible",
        -10.272950172424316
      ],
      [
        "▁String",
        -10.273085594177246
      ],
      [
        "list",
        -10.273381233215332
      ],
      [
        "▁Was",
        -10.273953437805176
      ],
      [
        "▁possibly",
        -10.273955345153809
      ],
      [
        "la",
        -10.274139404296877
      ],
      [
        "▁kinda",
        -10.274974822998049
      ],
      [
        "q",
        -10.275007247924805
      ],
      [
        "],",
        -10.275196075439451
      ],
      [
        "▁serve",
        -10.275751113891602
      ],
      [
        "size",
        -10.27578830718994
      ],
      [
        "▁okay",
        -10.276204109191896
      ],
      [
        "test",
        -10.276548385620115
      ],
      [
        "▁train",
        -10.277043342590332
      ],
      [
        "▁moral",
        -10.277156829833984
      ],
      [
        "▁Michael",
        -10.277739524841309
      ],
      [
        "▁mom",
        -10.278282165527344
      ],
      [
        "And",
        -10.278550148010254
      ],
      [
        "that",
        -10.279160499572754
      ],
      [
        "▁Americans",
        -10.279385566711426
      ],
      [
        "▁j",
        -10.279582977294922
      ],
      [
        "um",
        -10.27963924407959
      ],
      [
        "il",
        -10.27980136871338
      ],
      [
        "▁teacher",
        -10.279833793640137
      ],
      [
        "▁sister",
        -10.279877662658691
      ],
      [
        "▁Monday",
        -10.280099868774414
      ],
      [
        "▁Company",
        -10.280562400817873
      ],
      [
        "▁twice",
        -10.281485557556152
      ],
      [
        "▁gay",
        -10.28207302093506
      ],
      [
        "key",
        -10.282271385192873
      ],
      [
        "▁tend",
        -10.28248691558838
      ],
      [
        "▁glad",
        -10.283957481384276
      ],
      [
        "▁Paris",
        -10.284764289855955
      ],
      [
        "▁provides",
        -10.284873962402344
      ],
      [
        "▁rich",
        -10.285440444946287
      ],
      [
        "with",
        -10.285569190979004
      ],
      [
        "▁///",
        -10.28634548187256
      ],
      [
        "▁south",
        -10.287647247314451
      ],
      [
        "▁Israel",
        -10.287702560424805
      ],
      [
        "?”",
        -10.28813934326172
      ],
      [
        "▁worry",
        -10.289536476135254
      ],
      [
        "▁rock",
        -10.289703369140623
      ],
      [
        "▁disease",
        -10.289825439453123
      ],
      [
        "▁drug",
        -10.29007625579834
      ],
      [
        "▁construction",
        -10.29076099395752
      ],
      [
        "▁spirit",
        -10.29150676727295
      ],
      [
        "▁noticed",
        -10.291643142700195
      ],
      [
        "▁Park",
        -10.291902542114258
      ],
      [
        "▁qui",
        -10.292195320129396
      ],
      [
        "▁km",
        -10.292293548583984
      ],
      [
        "----------------",
        -10.292858123779297
      ],
      [
        "▁Sorry",
        -10.292902946472168
      ],
      [
        "▁League",
        -10.293254852294922
      ],
      [
        "▁arm",
        -10.293745994567873
      ],
      [
        "▁shape",
        -10.29421043395996
      ],
      [
        "▁watched",
        -10.294219970703123
      ],
      [
        "▁Nice",
        -10.295096397399902
      ],
      [
        "▁neither",
        -10.295361518859863
      ],
      [
        "index",
        -10.295438766479492
      ],
      [
        "▁cheap",
        -10.295550346374512
      ],
      [
        "▁rates",
        -10.295833587646484
      ],
      [
        "▁twenty",
        -10.296463966369627
      ],
      [
        "ch",
        -10.296478271484377
      ],
      [
        "▁mit",
        -10.296743392944336
      ],
      [
        "▁PC",
        -10.29710578918457
      ],
      [
        "▁chief",
        -10.29727554321289
      ],
      [
        "▁families",
        -10.297825813293455
      ],
      [
        "▁OR",
        -10.298638343811035
      ],
      [
        "▁bunch",
        -10.29952621459961
      ],
      [
        "▁College",
        -10.30026626586914
      ],
      [
        "▁Love",
        -10.30034637451172
      ],
      [
        "▁applied",
        -10.300593376159668
      ],
      [
        "▁command",
        -10.30094051361084
      ],
      [
        "▁equipment",
        -10.301366806030272
      ],
      [
        "▁draw",
        -10.30209732055664
      ],
      [
        "▁somewhere",
        -10.302190780639648
      ],
      [
        "▁!=",
        -10.303960800170898
      ],
      [
        "▁opening",
        -10.304039001464844
      ],
      [
        "▁rise",
        -10.304092407226562
      ],
      [
        "▁keeping",
        -10.304488182067873
      ],
      [
        "▁league",
        -10.304490089416504
      ],
      [
        "을",
        -10.305208206176758
      ],
      [
        "right",
        -10.306229591369627
      ],
      [
        "▁Texas",
        -10.307256698608398
      ],
      [
        "▁existence",
        -10.307989120483398
      ],
      [
        "▁miss",
        -10.3080472946167
      ],
      [
        "▁independent",
        -10.308520317077637
      ],
      [
        "▁skill",
        -10.308940887451172
      ],
      [
        "▁listen",
        -10.308963775634766
      ],
      [
        "▁evil",
        -10.309802055358888
      ],
      [
        "▁foot",
        -10.310454368591309
      ],
      [
        "▁relevant",
        -10.310945510864258
      ],
      [
        "▁soul",
        -10.312073707580566
      ],
      [
        "▁exact",
        -10.312434196472168
      ],
      [
        "▁thoughts",
        -10.312677383422852
      ],
      [
        "▁zu",
        -10.313499450683594
      ],
      [
        "▁op",
        -10.314326286315918
      ],
      [
        "▁driving",
        -10.314770698547363
      ],
      [
        "▁interests",
        -10.314868927001951
      ],
      [
        "▁Day",
        -10.31539535522461
      ],
      [
        "▁En",
        -10.31554126739502
      ],
      [
        "▁presented",
        -10.315887451171877
      ],
      [
        "▁Smith",
        -10.316442489624023
      ],
      [
        "▁glass",
        -10.316889762878418
      ],
      [
        "й",
        -10.317575454711914
      ],
      [
        "▁minute",
        -10.319544792175291
      ],
      [
        "▁prefer",
        -10.319646835327148
      ],
      [
        "▁decent",
        -10.319901466369627
      ],
      [
        "▁Free",
        -10.322725296020508
      ],
      [
        "▁leaders",
        -10.322858810424805
      ],
      [
        "▁paying",
        -10.323490142822266
      ],
      [
        "月",
        -10.32380485534668
      ],
      [
        "▁buying",
        -10.323974609375
      ],
      [
        "▁programs",
        -10.324325561523438
      ],
      [
        "▁task",
        -10.324422836303713
      ],
      [
        "▁VAG",
        -10.324645042419434
      ],
      [
        "▁album",
        -10.324981689453123
      ],
      [
        "▁limit",
        -10.32551383972168
      ],
      [
        "__",
        -10.325636863708496
      ],
      [
        "▁factors",
        -10.32586669921875
      ],
      [
        "apache",
        -10.326390266418455
      ],
      [
        "▁expression",
        -10.327213287353516
      ],
      [
        "▁Wednesday",
        -10.328984260559082
      ],
      [
        "▁defined",
        -10.330026626586914
      ],
      [
        "▁requires",
        -10.330805778503418
      ],
      [
        "▁cars",
        -10.33108901977539
      ],
      [
        "▁sales",
        -10.33124542236328
      ],
      [
        "▁Africa",
        -10.331436157226562
      ],
      [
        "▁leaves",
        -10.331631660461426
      ],
      [
        "▁agreement",
        -10.33167839050293
      ],
      [
        "▁units",
        -10.332826614379885
      ],
      [
        "▁ne",
        -10.332979202270508
      ],
      [
        "▁trial",
        -10.333203315734863
      ],
      [
        "▁measure",
        -10.333348274230955
      ],
      [
        "▁views",
        -10.33364200592041
      ],
      [
        "▁Reddit",
        -10.333807945251465
      ],
      [
        "▁eight",
        -10.334470748901367
      ],
      [
        "▁animal",
        -10.334547996520996
      ],
      [
        "ra",
        -10.335575103759766
      ],
      [
        "▁civil",
        -10.335626602172852
      ],
      [
        "▁persons",
        -10.336124420166016
      ],
      [
        "▁biggest",
        -10.336355209350586
      ],
      [
        "▁develop",
        -10.337138175964355
      ],
      [
        "▁Charles",
        -10.339385986328123
      ],
      [
        "▁Chapter",
        -10.339548110961914
      ],
      [
        "▁input",
        -10.339802742004396
      ],
      [
        "▁das",
        -10.339966773986816
      ],
      [
        "▁determined",
        -10.34009075164795
      ],
      [
        "▁factor",
        -10.34047031402588
      ],
      [
        "▁interview",
        -10.340476036071776
      ],
      [
        "▁doctor",
        -10.341089248657228
      ],
      [
        "▁initial",
        -10.341632843017578
      ],
      [
        "▁trip",
        -10.342206001281738
      ],
      [
        "▁Minister",
        -10.342358589172363
      ],
      [
        "▁protect",
        -10.343019485473633
      ],
      [
        "▁football",
        -10.343353271484377
      ],
      [
        "▁output",
        -10.343369483947754
      ],
      [
        "▁ice",
        -10.343735694885254
      ],
      [
        "▁apparently",
        -10.34373950958252
      ],
      [
        "▁hospital",
        -10.344379425048828
      ],
      [
        "▁served",
        -10.345003128051758
      ],
      [
        "▁considering",
        -10.345561027526855
      ],
      [
        "▁flow",
        -10.34595012664795
      ],
      [
        "▁stick",
        -10.346384048461914
      ],
      [
        "▁surprised",
        -10.34654140472412
      ],
      [
        "▁Such",
        -10.346759796142578
      ],
      [
        "▁за",
        -10.346866607666016
      ],
      [
        "dd",
        -10.347748756408691
      ],
      [
        "▁sides",
        -10.34816837310791
      ],
      [
        "▁latest",
        -10.348939895629885
      ],
      [
        "▁operation",
        -10.3492431640625
      ],
      [
        "▁extent",
        -10.349688529968262
      ],
      [
        "▁Re",
        -10.349925994873049
      ],
      [
        "▁photo",
        -10.350723266601562
      ],
      [
        "▁switch",
        -10.351839065551758
      ],
      [
        "▁importance",
        -10.352496147155762
      ],
      [
        "▁traditional",
        -10.352580070495604
      ],
      [
        "▁В",
        -10.35295581817627
      ],
      [
        "▁lots",
        -10.35320281982422
      ],
      [
        "▁bill",
        -10.353233337402344
      ],
      [
        "you",
        -10.354329109191896
      ],
      [
        "▁patients",
        -10.354339599609377
      ],
      [
        "▁Facebook",
        -10.35438060760498
      ],
      [
        "▁critical",
        -10.355530738830566
      ],
      [
        "▁failure",
        -10.356149673461914
      ],
      [
        "▁push",
        -10.357181549072266
      ],
      [
        "▁Al",
        -10.357305526733398
      ],
      [
        "▁videos",
        -10.357776641845703
      ],
      [
        "▁efforts",
        -10.357778549194336
      ],
      [
        "▁distribution",
        -10.358448028564451
      ],
      [
        "▁description",
        -10.360788345336914
      ],
      [
        "▁opposite",
        -10.36162281036377
      ],
      [
        "▁desire",
        -10.361812591552734
      ],
      [
        "▁somewhat",
        -10.36264705657959
      ],
      [
        "▁enter",
        -10.364483833312988
      ],
      [
        "▁Sir",
        -10.364867210388184
      ],
      [
        "▁cash",
        -10.365281105041504
      ],
      [
        "▁definition",
        -10.365401268005373
      ],
      [
        "▁prove",
        -10.366769790649414
      ],
      [
        "▁^",
        -10.3671236038208
      ],
      [
        "▁lie",
        -10.367215156555176
      ],
      [
        "▁Australia",
        -10.367506980895996
      ],
      [
        "▁pattern",
        -10.367554664611816
      ],
      [
        "▁exchange",
        -10.367605209350586
      ],
      [
        "▁speaking",
        -10.368176460266112
      ],
      [
        "▁fairly",
        -10.368231773376465
      ],
      [
        "ic",
        -10.368871688842772
      ],
      [
        "▁highest",
        -10.36929416656494
      ],
      [
        "“",
        -10.369989395141602
      ],
      [
        "▁broke",
        -10.37002182006836
      ],
      [
        "▁variety",
        -10.370309829711914
      ],
      [
        "▁knowing",
        -10.370454788208008
      ],
      [
        "▁spread",
        -10.371747970581056
      ],
      [
        "▁village",
        -10.372718811035156
      ],
      [
        "▁camera",
        -10.374064445495604
      ],
      [
        "°",
        -10.37447738647461
      ],
      [
        "▁cast",
        -10.375139236450195
      ],
      [
        "▁Use",
        -10.375767707824709
      ],
      [
        "▁thousand",
        -10.375957489013672
      ],
      [
        "we",
        -10.375996589660645
      ],
      [
        "function",
        -10.376691818237305
      ],
      [
        "▁fish",
        -10.377241134643556
      ],
      [
        "▁sat",
        -10.378032684326172
      ],
      [
        "이",
        -10.378058433532717
      ],
      [
        "▁finish",
        -10.378119468688965
      ],
      [
        "▁constant",
        -10.378376007080078
      ],
      [
        "▁Un",
        -10.378541946411133
      ],
      [
        "add",
        -10.37873363494873
      ],
      [
        "▁insurance",
        -10.379048347473145
      ],
      [
        "▁protection",
        -10.3790922164917
      ],
      [
        "▁judge",
        -10.3792085647583
      ],
      [
        "▁feelings",
        -10.380537986755373
      ],
      [
        "▁patient",
        -10.38059425354004
      ],
      [
        "▁cat",
        -10.380905151367188
      ],
      [
        "▁honest",
        -10.381487846374512
      ],
      [
        "▁killing",
        -10.381918907165527
      ],
      [
        "▁pictures",
        -10.383535385131836
      ],
      [
        "▁Journal",
        -10.384309768676758
      ],
      [
        "▁labor",
        -10.385371208190918
      ],
      [
        "▁shop",
        -10.385520935058594
      ],
      [
        "▁Die",
        -10.38688850402832
      ],
      [
        "▁Yet",
        -10.387392044067385
      ],
      [
        "▁info",
        -10.387617111206056
      ],
      [
        "▁Western",
        -10.388290405273438
      ],
      [
        "▁Each",
        -10.388728141784668
      ],
      [
        "人",
        -10.38880443572998
      ],
      [
        "▁fat",
        -10.389481544494627
      ],
      [
        "so",
        -10.389567375183104
      ],
      [
        "▁plays",
        -10.39046573638916
      ],
      [
        "▁suggested",
        -10.390494346618652
      ],
      [
        "Data",
        -10.390583992004396
      ],
      [
        "▁records",
        -10.39139461517334
      ],
      [
        "▁Hi",
        -10.392139434814451
      ],
      [
        "▁Peter",
        -10.39216136932373
      ],
      [
        "▁element",
        -10.39301586151123
      ],
      [
        "▁Obama",
        -10.393162727355955
      ],
      [
        "▁relatively",
        -10.393858909606934
      ],
      [
        "▁seconds",
        -10.394302368164062
      ],
      [
        "▁happening",
        -10.394755363464355
      ],
      [
        "▁depends",
        -10.395167350769045
      ],
      [
        "▁III",
        -10.39561367034912
      ],
      [
        "▁internal",
        -10.395697593688965
      ],
      [
        "▁materials",
        -10.395804405212402
      ],
      [
        "▁concern",
        -10.39596462249756
      ],
      [
        "▁justice",
        -10.396525382995604
      ],
      [
        "▁plenty",
        -10.396595001220703
      ],
      [
        "me",
        -10.397510528564451
      ],
      [
        "▁follows",
        -10.39766788482666
      ],
      [
        "▁intended",
        -10.397910118103027
      ],
      [
        "▁African",
        -10.397932052612305
      ],
      [
        "▁cultural",
        -10.39802074432373
      ],
      [
        "▁Very",
        -10.398492813110352
      ],
      [
        "▁becoming",
        -10.398493766784668
      ],
      [
        "▁budget",
        -10.398500442504885
      ],
      [
        "▁steps",
        -10.399083137512209
      ],
      [
        "▁une",
        -10.399643898010254
      ],
      [
        "▁eating",
        -10.401087760925291
      ],
      [
        "▁challenge",
        -10.40129852294922
      ],
      [
        "▁cities",
        -10.401814460754396
      ],
      [
        "▁prepared",
        -10.402143478393556
      ],
      [
        "▁Table",
        -10.40241527557373
      ],
      [
        "▁allows",
        -10.402417182922363
      ],
      [
        "▁ni",
        -10.403034210205078
      ],
      [
        "一",
        -10.403327941894531
      ],
      [
        "▁walking",
        -10.403823852539062
      ],
      [
        "▁dad",
        -10.404474258422852
      ],
      [
        "▁-->",
        -10.40479850769043
      ],
      [
        "▁believed",
        -10.405062675476074
      ],
      [
        "▁formed",
        -10.405397415161133
      ],
      [
        "▁benefits",
        -10.405692100524902
      ],
      [
        "▁birth",
        -10.406112670898438
      ],
      [
        "List",
        -10.406255722045898
      ],
      [
        "▁Republican",
        -10.406445503234863
      ],
      [
        "▁investment",
        -10.40659523010254
      ],
      [
        "▁purchase",
        -10.406620979309082
      ],
      [
        "▁reply",
        -10.406814575195312
      ],
      [
        "▁matters",
        -10.40691375732422
      ],
      [
        "▁regarding",
        -10.407478332519531
      ],
      [
        "▁circumstances",
        -10.40804386138916
      ],
      [
        "▁temperature",
        -10.408166885375977
      ],
      [
        "▁relations",
        -10.408174514770508
      ],
      [
        "▁accepted",
        -10.408726692199709
      ],
      [
        "▁master",
        -10.40907382965088
      ],
      [
        "▁era",
        -10.410499572753906
      ],
      [
        "▁firm",
        -10.410579681396484
      ],
      [
        "▁prior",
        -10.410924911499023
      ],
      [
        "));",
        -10.410993576049805
      ],
      [
        "▁specifically",
        -10.411300659179688
      ],
      [
        "min",
        -10.411354064941406
      ],
      [
        "▁sick",
        -10.411721229553224
      ],
      [
        "▁wind",
        -10.4120454788208
      ],
      [
        "▁Center",
        -10.412046432495115
      ],
      [
        "о",
        -10.41222858428955
      ],
      [
        "▁manager",
        -10.412480354309082
      ],
      [
        "▁responsibility",
        -10.412779808044434
      ],
      [
        "▁metal",
        -10.413019180297852
      ],
      [
        "▁evening",
        -10.413043975830078
      ],
      [
        "▁models",
        -10.413396835327148
      ],
      [
        "TD",
        -10.413687705993652
      ],
      [
        "▁dollars",
        -10.414416313171388
      ],
      [
        "▁located",
        -10.414653778076172
      ],
      [
        "▁ha",
        -10.414725303649902
      ],
      [
        "▁sweet",
        -10.414795875549316
      ],
      [
        "end",
        -10.414877891540527
      ],
      [
        "▁Right",
        -10.415369987487791
      ],
      [
        "▁existing",
        -10.415948867797852
      ],
      [
        "▁realized",
        -10.416740417480469
      ],
      [
        "▁slowly",
        -10.417189598083496
      ],
      [
        "▁sur",
        -10.418517112731934
      ],
      [
        "table",
        -10.419325828552246
      ],
      [
        "▁owner",
        -10.41945457458496
      ],
      [
        "▁noted",
        -10.419917106628418
      ],
      [
        "▁anywhere",
        -10.421446800231934
      ],
      [
        "▁button",
        -10.421903610229492
      ],
      [
        "▁filled",
        -10.423020362854004
      ],
      [
        "▁determine",
        -10.423129081726074
      ],
      [
        "▁edge",
        -10.423221588134766
      ],
      [
        "▁reaction",
        -10.423385620117188
      ],
      [
        "▁suddenly",
        -10.423444747924805
      ],
      [
        "my",
        -10.423455238342283
      ],
      [
        "['",
        -10.423476219177246
      ],
      [
        "▁liked",
        -10.423508644104004
      ],
      [
        "New",
        -10.423575401306152
      ],
      [
        "▁weekend",
        -10.42373275756836
      ],
      [
        "];",
        -10.423781394958496
      ],
      [
        "▁Committee",
        -10.424023628234863
      ],
      [
        "title",
        -10.424358367919922
      ],
      [
        "▁cells",
        -10.424444198608398
      ],
      [
        "▁hearing",
        -10.424650192260742
      ],
      [
        "file",
        -10.425466537475586
      ],
      [
        "▁dream",
        -10.42642593383789
      ],
      [
        "▁default",
        -10.427874565124512
      ],
      [
        "▁runs",
        -10.428268432617188
      ],
      [
        "▁Police",
        -10.42857837677002
      ],
      [
        "大",
        -10.429041862487791
      ],
      [
        "path",
        -10.42931079864502
      ],
      [
        "在",
        -10.429359436035156
      ],
      [
        "▁Last",
        -10.430261611938477
      ],
      [
        "▁<!--",
        -10.430583000183104
      ],
      [
        "日",
        -10.430648803710938
      ],
      [
        "▁Mexico",
        -10.431468963623049
      ],
      [
        "▁Tuesday",
        -10.431904792785645
      ],
      [
        "▁strategy",
        -10.4319486618042
      ],
      [
        "‌",
        -10.432486534118652
      ],
      [
        "▁thousands",
        -10.432490348815918
      ],
      [
        "▁lay",
        -10.433013916015623
      ],
      [
        "ca",
        -10.43331527709961
      ],
      [
        "▁changing",
        -10.433667182922363
      ],
      [
        "▁load",
        -10.43376636505127
      ],
      [
        "\";",
        -10.433774948120115
      ],
      [
        "：",
        -10.433995246887209
      ],
      [
        "▁och",
        -10.434002876281738
      ],
      [
        "▁properly",
        -10.434300422668455
      ],
      [
        "▁Law",
        -10.434334754943848
      ],
      [
        "▁secret",
        -10.434969902038574
      ],
      [
        "api",
        -10.435404777526855
      ],
      [
        "▁Bill",
        -10.435744285583496
      ],
      [
        "▁facts",
        -10.435949325561523
      ],
      [
        "▁appreciate",
        -10.435964584350586
      ],
      [
        "▁Saturday",
        -10.436381340026855
      ],
      [
        "user",
        -10.43725872039795
      ],
      [
        "se",
        -10.437929153442385
      ],
      [
        "▁director",
        -10.438361167907717
      ],
      [
        "▁Big",
        -10.439053535461426
      ],
      [
        "▁fresh",
        -10.439146995544434
      ],
      [
        "▁print",
        -10.439702033996582
      ],
      [
        "▁dry",
        -10.439772605895996
      ],
      [
        "true",
        -10.43986701965332
      ],
      [
        "▁Public",
        -10.440972328186035
      ],
      [
        "▁capacity",
        -10.441224098205566
      ],
      [
        "▁Thursday",
        -10.441627502441406
      ],
      [
        "▁dangerous",
        -10.442095756530762
      ],
      [
        "▁NOT",
        -10.442146301269531
      ],
      [
        "▁River",
        -10.442228317260742
      ],
      [
        "▁differences",
        -10.442533493041992
      ],
      [
        "▁images",
        -10.443251609802246
      ],
      [
        "▁Inc",
        -10.443488121032717
      ],
      [
        "▁faster",
        -10.44387435913086
      ],
      [
        "▁losing",
        -10.443971633911133
      ],
      [
        "▁counter",
        -10.44399356842041
      ],
      [
        "▁walked",
        -10.444008827209473
      ],
      [
        "▁frame",
        -10.44439697265625
      ],
      [
        "quot",
        -10.445120811462402
      ],
      [
        "px",
        -10.445798873901367
      ],
      [
        "▁reasonable",
        -10.445929527282717
      ],
      [
        "▁river",
        -10.4461030960083
      ],
      [
        "▁Fig",
        -10.44616413116455
      ],
      [
        "▁turns",
        -10.446541786193848
      ],
      [
        "▁greatest",
        -10.446666717529297
      ],
      [
        "▁decisions",
        -10.446916580200195
      ],
      [
        "▁raise",
        -10.44698429107666
      ],
      [
        "▁billion",
        -10.447076797485352
      ],
      [
        "▁Office",
        -10.447115898132324
      ],
      [
        "▁£",
        -10.44726276397705
      ],
      [
        "▁pulled",
        -10.447275161743164
      ],
      [
        "▁Mary",
        -10.448294639587402
      ],
      [
        "▁Henry",
        -10.448668479919434
      ],
      [
        "▁em",
        -10.449698448181152
      ],
      [
        "▁bigger",
        -10.450488090515137
      ],
      [
        "lang",
        -10.452113151550291
      ],
      [
        "());",
        -10.452718734741213
      ],
      [
        "▁proof",
        -10.452946662902832
      ],
      [
        "▁perfectly",
        -10.453972816467283
      ],
      [
        "▁exercise",
        -10.454368591308594
      ],
      [
        "▁adding",
        -10.454482078552246
      ],
      [
        "▁Society",
        -10.455041885375977
      ],
      [
        "▁array",
        -10.455080032348633
      ],
      [
        "▁email",
        -10.455371856689451
      ],
      [
        "▁regard",
        -10.455500602722168
      ],
      [
        "▁shooting",
        -10.455595016479492
      ],
      [
        "▁Research",
        -10.455945014953612
      ],
      [
        "▁transfer",
        -10.45620822906494
      ],
      [
        "▁explained",
        -10.456276893615724
      ],
      [
        "▁Star",
        -10.456426620483398
      ],
      [
        "▁investigation",
        -10.457401275634766
      ],
      [
        "▁massive",
        -10.457866668701172
      ],
      [
        "▁Note",
        -10.45836353302002
      ],
      [
        "Q",
        -10.459233283996582
      ],
      [
        "▁perspective",
        -10.45934009552002
      ],
      [
        "▁obtained",
        -10.459407806396484
      ],
      [
        "ton",
        -10.459449768066406
      ],
      [
        "▁Chicago",
        -10.459702491760254
      ],
      [
        "||",
        -10.459790229797363
      ],
      [
        "▁Super",
        -10.460878372192385
      ],
      [
        "▁Old",
        -10.460938453674316
      ],
      [
        "▁minimum",
        -10.462469100952148
      ],
      [
        "▁Second",
        -10.462512016296388
      ],
      [
        "▁weapon",
        -10.463058471679688
      ],
      [
        "▁frequently",
        -10.463415145874023
      ],
      [
        "▁flat",
        -10.46361255645752
      ],
      [
        "▁pieces",
        -10.464232444763184
      ],
      [
        "▁zero",
        -10.464414596557615
      ],
      [
        "▁Make",
        -10.465350151062012
      ],
      [
        "▁yesterday",
        -10.467004776000977
      ],
      [
        "▁rare",
        -10.467294692993164
      ],
      [
        "▁attacks",
        -10.467694282531738
      ],
      [
        "▁notes",
        -10.4679536819458
      ],
      [
        "▁Same",
        -10.468941688537598
      ],
      [
        "▁relation",
        -10.469029426574709
      ],
      [
        "▁goals",
        -10.46924114227295
      ],
      [
        "▁competition",
        -10.469820976257324
      ],
      [
        "▁display",
        -10.469860076904297
      ],
      [
        "▁Post",
        -10.469897270202637
      ],
      [
        "▁remained",
        -10.470172882080078
      ],
      [
        "▁Copyright",
        -10.470196723937988
      ],
      [
        "▁necessarily",
        -10.470547676086426
      ],
      [
        "▁sentence",
        -10.470860481262209
      ],
      [
        "▁Air",
        -10.472604751586914
      ],
      [
        "▁previously",
        -10.472917556762695
      ],
      [
        "▁bag",
        -10.47315502166748
      ],
      [
        "ID",
        -10.473576545715332
      ],
      [
        "png",
        -10.473774909973145
      ],
      [
        "▁spending",
        -10.474045753479004
      ],
      [
        "▁employees",
        -10.47410488128662
      ],
      [
        "▁familiar",
        -10.47436237335205
      ],
      [
        "▁gotten",
        -10.475024223327637
      ],
      [
        "▁stream",
        -10.476231575012209
      ],
      [
        "▁arrived",
        -10.476773262023926
      ],
      [
        "▁Sometimes",
        -10.47769832611084
      ],
      [
        "▁guide",
        -10.478307723999023
      ],
      [
        "▁boys",
        -10.478560447692873
      ],
      [
        "▁mission",
        -10.478938102722168
      ],
      [
        "▁corner",
        -10.47922420501709
      ],
      [
        "▁historical",
        -10.479247093200684
      ],
      [
        "▁apart",
        -10.479572296142578
      ],
      [
        "▁score",
        -10.47988510131836
      ],
      [
        "▁picked",
        -10.480647087097168
      ],
      [
        "▁▁▁▁▁▁▁▁▁▁▁",
        -10.480680465698242
      ],
      [
        "go",
        -10.481679916381836
      ],
      [
        "▁healthy",
        -10.483200073242188
      ],
      [
        "▁waste",
        -10.48338794708252
      ],
      [
        "NA",
        -10.483745574951172
      ],
      [
        "▁closer",
        -10.483964920043944
      ],
      [
        "▁News",
        -10.484070777893066
      ],
      [
        "▁border",
        -10.484138488769531
      ],
      [
        "▁Britain",
        -10.484461784362791
      ],
      [
        "▁examples",
        -10.48560905456543
      ],
      [
        "▁constantly",
        -10.485933303833008
      ],
      [
        "▁client",
        -10.48625659942627
      ],
      [
        "▁core",
        -10.486600875854492
      ],
      [
        "That",
        -10.486726760864258
      ],
      [
        "▁Before",
        -10.486884117126465
      ],
      [
        "▁USA",
        -10.48742961883545
      ],
      [
        "▁spoke",
        -10.487715721130373
      ],
      [
        "▁driver",
        -10.487828254699709
      ],
      [
        "ja",
        -10.488531112670898
      ],
      [
        "▁dropped",
        -10.490630149841309
      ],
      [
        "▁au",
        -10.490741729736328
      ],
      [
        "▁height",
        -10.493515014648438
      ],
      [
        "Object",
        -10.493772506713867
      ],
      [
        "▁relative",
        -10.493958473205566
      ],
      [
        "mm",
        -10.494098663330078
      ],
      [
        "....",
        -10.494903564453123
      ],
      [
        "▁te",
        -10.495028495788574
      ],
      [
        "▁describe",
        -10.49551010131836
      ],
      [
        "▁radio",
        -10.49606704711914
      ],
      [
        "▁Never",
        -10.49669075012207
      ],
      [
        "▁pair",
        -10.497066497802734
      ],
      [
        "▁plants",
        -10.497190475463867
      ],
      [
        "▁ensure",
        -10.497462272644045
      ],
      [
        "off",
        -10.498126029968262
      ],
      [
        "▁afraid",
        -10.498577117919922
      ],
      [
        "▁document",
        -10.498577117919922
      ],
      [
        "▁Health",
        -10.49889087677002
      ],
      [
        "▁Service",
        -10.49906063079834
      ],
      [
        "php",
        -10.499783515930176
      ],
      [
        "▁detail",
        -10.499821662902832
      ],
      [
        "▁selling",
        -10.500323295593262
      ],
      [
        "▁duty",
        -10.500909805297852
      ],
      [
        "▁starts",
        -10.501290321350098
      ],
      [
        "▁treated",
        -10.501802444458008
      ],
      [
        "▁operations",
        -10.501901626586914
      ],
      [
        "▁upper",
        -10.50223445892334
      ],
      [
        "▁generation",
        -10.502496719360352
      ],
      [
        "▁affect",
        -10.502982139587402
      ],
      [
        "▁Art",
        -10.50348663330078
      ],
      [
        "▁wearing",
        -10.503497123718262
      ],
      [
        "▁express",
        -10.503732681274414
      ],
      [
        "▁trees",
        -10.50398063659668
      ],
      [
        "▁hasn",
        -10.504076957702637
      ],
      [
        "▁Senate",
        -10.505196571350098
      ],
      [
        "▁winter",
        -10.505426406860352
      ],
      [
        "▁missed",
        -10.507597923278809
      ],
      [
        "▁somehow",
        -10.507670402526855
      ],
      [
        "▁guns",
        -10.507942199707031
      ],
      [
        "▁merely",
        -10.50796127319336
      ],
      [
        "▁Richard",
        -10.508172988891602
      ],
      [
        "▁weren",
        -10.508310317993164
      ],
      [
        "▁purposes",
        -10.50869369506836
      ],
      [
        "▁projects",
        -10.508949279785156
      ],
      [
        "▁mark",
        -10.50942325592041
      ],
      [
        "▁Joe",
        -10.509440422058104
      ],
      [
        "▁distributed",
        -10.509847640991213
      ],
      [
        "css",
        -10.510055541992188
      ],
      [
        "▁engine",
        -10.510139465332031
      ],
      [
        "▁department",
        -10.510375022888184
      ],
      [
        "▁Kategori",
        -10.5108060836792
      ],
      [
        "▁communication",
        -10.510930061340332
      ],
      [
        "▁Central",
        -10.51115894317627
      ],
      [
        "less",
        -10.5115327835083
      ],
      [
        "▁mobile",
        -10.511669158935549
      ],
      [
        "▁dating",
        -10.512407302856444
      ],
      [
        "▁package",
        -10.512721061706545
      ],
      [
        "▁policies",
        -10.512920379638672
      ],
      [
        "▁usual",
        -10.51529026031494
      ],
      [
        "▁signed",
        -10.51540184020996
      ],
      [
        "▁brand",
        -10.515660285949709
      ],
      [
        "▁offers",
        -10.515727996826172
      ],
      [
        "ism",
        -10.515785217285156
      ],
      [
        "▁connected",
        -10.516242980957031
      ],
      [
        "▁traffic",
        -10.51626968383789
      ],
      [
        "▁proposed",
        -10.516419410705566
      ],
      [
        "Exception",
        -10.517182350158691
      ],
      [
        "men",
        -10.518221855163574
      ],
      [
        "▁net",
        -10.518667221069336
      ],
      [
        "▁ends",
        -10.518939971923828
      ],
      [
        "▁refer",
        -10.519429206848145
      ],
      [
        "▁Group",
        -10.519927024841309
      ],
      [
        "▁managed",
        -10.520306587219238
      ],
      [
        "▁spring",
        -10.520411491394045
      ],
      [
        "▁partner",
        -10.520968437194824
      ],
      [
        "▁appearance",
        -10.521488189697266
      ],
      [
        "▁taste",
        -10.522089958190918
      ],
      [
        "▁che",
        -10.522197723388672
      ],
      [
        "▁ill",
        -10.522714614868164
      ],
      [
        "▁ordered",
        -10.522771835327148
      ],
      [
        "▁hoping",
        -10.523682594299316
      ],
      [
        "▁web",
        -10.524235725402832
      ],
      [
        "▁auto",
        -10.524469375610352
      ],
      [
        "▁Association",
        -10.524739265441896
      ],
      [
        "▁ring",
        -10.524809837341309
      ],
      [
        "▁debate",
        -10.52500343322754
      ],
      [
        "term",
        -10.525494575500488
      ],
      [
        "▁vehicle",
        -10.525829315185549
      ],
      [
        "▁parent",
        -10.52613639831543
      ],
      [
        "▁reduce",
        -10.527335166931152
      ],
      [
        "▁powers",
        -10.527348518371582
      ],
      [
        "▁excellent",
        -10.527643203735352
      ],
      [
        "▁Donald",
        -10.527718544006348
      ],
      [
        "▁strange",
        -10.52820110321045
      ],
      [
        "▁possibility",
        -10.528618812561035
      ],
      [
        "▁accounts",
        -10.528669357299805
      ],
      [
        "▁contains",
        -10.529035568237305
      ],
      [
        "▁las",
        -10.529250144958496
      ],
      [
        "▁teaching",
        -10.529267311096191
      ],
      [
        "▁Social",
        -10.530455589294434
      ],
      [
        "▁horse",
        -10.530492782592772
      ],
      [
        "ko",
        -10.532134056091309
      ],
      [
        "▁seat",
        -10.53226375579834
      ],
      [
        "');",
        -10.532447814941406
      ],
      [
        "▁nobody",
        -10.532955169677734
      ],
      [
        "▁{\r",
        -10.532999992370604
      ],
      [
        "▁deck",
        -10.53300666809082
      ],
      [
        "ka",
        -10.533458709716797
      ],
      [
        "▁fill",
        -10.53353786468506
      ],
      [
        "▁Army",
        -10.534008026123049
      ],
      [
        "▁med",
        -10.534164428710938
      ],
      [
        "▁illegal",
        -10.534558296203612
      ],
      [
        "▁wondering",
        -10.53456687927246
      ],
      [
        "▁tool",
[...]
